{
  "version": "1.0",
  "truncation": null,
  "padding": null,
  "added_tokens": [
    {
      "id": 0,
      "content": "<pad>",
      "single_word": false,
      "lstrip": false,
      "rstrip": false,
      "normalized": false,
      "special": true
    },
    {
      "id": 1,
      "content": "<unk>",
      "single_word": false,
      "lstrip": false,
      "rstrip": false,
      "normalized": false,
      "special": true
    },
    {
      "id": 2,
      "content": "<cls>",
      "single_word": false,
      "lstrip": false,
      "rstrip": false,
      "normalized": false,
      "special": true
    },
    {
      "id": 3,
      "content": "<sep>",
      "single_word": false,
      "lstrip": false,
      "rstrip": false,
      "normalized": false,
      "special": true
    },
    {
      "id": 4,
      "content": "<mask>",
      "single_word": false,
      "lstrip": false,
      "rstrip": false,
      "normalized": false,
      "special": true
    },
    {
      "id": 5,
      "content": "<trunc>",
      "single_word": false,
      "lstrip": false,
      "rstrip": false,
      "normalized": false,
      "special": true
    },
    {
      "id": 6,
      "content": "<yes>",
      "single_word": false,
      "lstrip": false,
      "rstrip": false,
      "normalized": false,
      "special": true
    },
    {
      "id": 7,
      "content": "<no>",
      "single_word": false,
      "lstrip": false,
      "rstrip": false,
      "normalized": false,
      "special": true
    },
    {
      "id": 8,
      "content": "<abstain>",
      "single_word": false,
      "lstrip": false,
      "rstrip": false,
      "normalized": false,
      "special": true
    },
    {
      "id": 9,
      "content": "<ans>",
      "single_word": false,
      "lstrip": false,
      "rstrip": false,
      "normalized": false,
      "special": true
    },
    {
      "id": 10,
      "content": "</ans>",
      "single_word": false,
      "lstrip": false,
      "rstrip": false,
      "normalized": false,
      "special": true
    }
  ],
  "normalizer": null,
  "pre_tokenizer": {
    "type": "ByteLevel",
    "add_prefix_space": false,
    "trim_offsets": true,
    "use_regex": true
  },
  "post_processor": null,
  "decoder": {
    "type": "ByteLevel",
    "add_prefix_space": true,
    "trim_offsets": true,
    "use_regex": true
  },
  "model": {
    "type": "BPE",
    "dropout": null,
    "unk_token": null,
    "continuing_subword_prefix": null,
    "end_of_word_suffix": null,
    "fuse_unk": false,
    "byte_fallback": false,
    "ignore_merges": false,
    "vocab": {
      "<pad>": 0,
      "<unk>": 1,
      "<cls>": 2,
      "<sep>": 3,
      "<mask>": 4,
      "<trunc>": 5,
      "<yes>": 6,
      "<no>": 7,
      "<abstain>": 8,
      "<ans>": 9,
      "</ans>": 10,
      "!": 11,
      "\"": 12,
      "#": 13,
      "$": 14,
      "%": 15,
      "&": 16,
      "'": 17,
      "(": 18,
      ")": 19,
      "*": 20,
      "+": 21,
      ",": 22,
      "-": 23,
      ".": 24,
      "/": 25,
      "0": 26,
      "1": 27,
      "2": 28,
      "3": 29,
      "4": 30,
      "5": 31,
      "6": 32,
      "7": 33,
      "8": 34,
      "9": 35,
      ":": 36,
      ";": 37,
      "<": 38,
      "=": 39,
      ">": 40,
      "?": 41,
      "@": 42,
      "A": 43,
      "B": 44,
      "C": 45,
      "D": 46,
      "E": 47,
      "F": 48,
      "G": 49,
      "H": 50,
      "I": 51,
      "J": 52,
      "K": 53,
      "L": 54,
      "M": 55,
      "N": 56,
      "O": 57,
      "P": 58,
      "Q": 59,
      "R": 60,
      "S": 61,
      "T": 62,
      "U": 63,
      "V": 64,
      "W": 65,
      "X": 66,
      "Y": 67,
      "Z": 68,
      "[": 69,
      "\\": 70,
      "]": 71,
      "^": 72,
      "_": 73,
      "`": 74,
      "a": 75,
      "b": 76,
      "c": 77,
      "d": 78,
      "e": 79,
      "f": 80,
      "g": 81,
      "h": 82,
      "i": 83,
      "j": 84,
      "k": 85,
      "l": 86,
      "m": 87,
      "n": 88,
      "o": 89,
      "p": 90,
      "q": 91,
      "r": 92,
      "s": 93,
      "t": 94,
      "u": 95,
      "v": 96,
      "w": 97,
      "x": 98,
      "y": 99,
      "z": 100,
      "{": 101,
      "|": 102,
      "}": 103,
      "~": 104,
      "¡": 105,
      "¢": 106,
      "£": 107,
      "¤": 108,
      "¥": 109,
      "¦": 110,
      "§": 111,
      "¨": 112,
      "©": 113,
      "ª": 114,
      "«": 115,
      "¬": 116,
      "®": 117,
      "¯": 118,
      "°": 119,
      "±": 120,
      "²": 121,
      "³": 122,
      "´": 123,
      "µ": 124,
      "¶": 125,
      "·": 126,
      "¸": 127,
      "¹": 128,
      "º": 129,
      "»": 130,
      "¼": 131,
      "½": 132,
      "¾": 133,
      "¿": 134,
      "À": 135,
      "Á": 136,
      "Â": 137,
      "Ã": 138,
      "Ä": 139,
      "Å": 140,
      "Æ": 141,
      "Ç": 142,
      "È": 143,
      "É": 144,
      "Ê": 145,
      "Ë": 146,
      "Ì": 147,
      "Í": 148,
      "Î": 149,
      "Ï": 150,
      "Ð": 151,
      "Ñ": 152,
      "Ò": 153,
      "Ó": 154,
      "Ô": 155,
      "Õ": 156,
      "Ö": 157,
      "×": 158,
      "Ø": 159,
      "Ù": 160,
      "Ú": 161,
      "Û": 162,
      "Ü": 163,
      "Ý": 164,
      "Þ": 165,
      "ß": 166,
      "à": 167,
      "á": 168,
      "â": 169,
      "ã": 170,
      "ä": 171,
      "å": 172,
      "æ": 173,
      "ç": 174,
      "è": 175,
      "é": 176,
      "ê": 177,
      "ë": 178,
      "ì": 179,
      "í": 180,
      "î": 181,
      "ï": 182,
      "ð": 183,
      "ñ": 184,
      "ò": 185,
      "ó": 186,
      "ô": 187,
      "õ": 188,
      "ö": 189,
      "÷": 190,
      "ø": 191,
      "ù": 192,
      "ú": 193,
      "û": 194,
      "ü": 195,
      "ý": 196,
      "þ": 197,
      "ÿ": 198,
      "Ā": 199,
      "ā": 200,
      "Ă": 201,
      "ă": 202,
      "Ą": 203,
      "ą": 204,
      "Ć": 205,
      "ć": 206,
      "Ĉ": 207,
      "ĉ": 208,
      "Ċ": 209,
      "ċ": 210,
      "Č": 211,
      "č": 212,
      "Ď": 213,
      "ď": 214,
      "Đ": 215,
      "đ": 216,
      "Ē": 217,
      "ē": 218,
      "Ĕ": 219,
      "ĕ": 220,
      "Ė": 221,
      "ė": 222,
      "Ę": 223,
      "ę": 224,
      "Ě": 225,
      "ě": 226,
      "Ĝ": 227,
      "ĝ": 228,
      "Ğ": 229,
      "ğ": 230,
      "Ġ": 231,
      "ġ": 232,
      "Ģ": 233,
      "ģ": 234,
      "Ĥ": 235,
      "ĥ": 236,
      "Ħ": 237,
      "ħ": 238,
      "Ĩ": 239,
      "ĩ": 240,
      "Ī": 241,
      "ī": 242,
      "Ĭ": 243,
      "ĭ": 244,
      "Į": 245,
      "į": 246,
      "İ": 247,
      "ı": 248,
      "Ĳ": 249,
      "ĳ": 250,
      "Ĵ": 251,
      "ĵ": 252,
      "Ķ": 253,
      "ķ": 254,
      "ĸ": 255,
      "Ĺ": 256,
      "ĺ": 257,
      "Ļ": 258,
      "ļ": 259,
      "Ľ": 260,
      "ľ": 261,
      "Ŀ": 262,
      "ŀ": 263,
      "Ł": 264,
      "ł": 265,
      "Ń": 266,
      "ä¸": 267,
      "ï¼": 268,
      "ï¼Į": 269,
      "çļ": 270,
      "çļĦ": 271,
      "ãĢ": 272,
      "Ġt": 273,
      "Ġa": 274,
      "ãĢĤ": 275,
      "he": 276,
      "in": 277,
      "äº": 278,
      "ä»": 279,
      "åı": 280,
      "er": 281,
      "æľ": 282,
      "on": 283,
      "re": 284,
      "Ġthe": 285,
      "è¯": 286,
      "åħ": 287,
      "åĪ": 288,
      "at": 289,
      "è¿": 290,
      "æĪ": 291,
      "en": 292,
      "ä¸Ģ": 293,
      "Ġs": 294,
      "ä½": 295,
      "æĺ": 296,
      "å¤": 297,
      "çĶ": 298,
      "å®": 299,
      "is": 300,
      "ed": 301,
      "or": 302,
      "an": 303,
      "åĲ": 304,
      "åľ": 305,
      "es": 306,
      "ä¹": 307,
      "ä¸ª": 308,
      "æĸ": 309,
      "Ġb": 310,
      "ç»": 311,
      "Ġc": 312,
      "Ġw": 313,
      "Ġo": 314,
      "æĺ¯": 315,
      "Ġ1": 316,
      "Ġp": 317,
      "åĴ": 318,
      "it": 319,
      "å°": 320,
      "ï¼ļ": 321,
      "ing": 322,
      "åĴĮ": 323,
      "åĬ": 324,
      "al": 325,
      "Ġf": 326,
      "åŃ": 327,
      "Ġan": 328,
      "åĳ": 329,
      "ä»¥": 330,
      "è®": 331,
      "ic": 332,
      "Ġin": 333,
      "æĹ": 334,
      "Ġ,": 335,
      "ãĢģ": 336,
      "åľ¨": 337,
      "ar": 338,
      "æķ": 339,
      "Ġm": 340,
      "ou": 341,
      "åĽ": 342,
      "Ġd": 343,
      "æĿ": 344,
      "éĩ": 345,
      "ion": 346,
      "Ġto": 347,
      "ent": 348,
      "Ġof": 349,
      "æľī": 350,
      "Ġand": 351,
      "æĪĳ": 352,
      "åĩ": 353,
      "åº": 354,
      "è¡": 355,
      "ä¸º": 356,
      "è¿Ļ": 357,
      "âĢ": 358,
      "åı¯": 359,
      "åį": 360,
      "éĢ": 361,
      "ä¸Ń": 362,
      "le": 363,
      "å¹": 364,
      "as": 365,
      "éĹ": 366,
      "ä¼": 367,
      "Ġth": 368,
      "Ġre": 369,
      "ĥ½": 370,
      "å·": 371,
      "Ġ.": 372,
      "äºĨ": 373,
      "å¸": 374,
      "åĪĨ": 375,
      "äºº": 376,
      "æī": 377,
      "çĶ¨": 378,
      "æł": 379,
      "å¥": 380,
      "å¾": 381,
      "å¯": 382,
      "ro": 383,
      "çī": 384,
      "åĳ¨": 385,
      "é¢": 386,
      "ï¼Ł": 387,
      "åĨ": 388,
      "ct": 389,
      "æĢ": 390,
      "åĮ": 391,
      "æŃ": 392,
      "il": 393,
      "æŀ": 394,
      "Ġh": 395,
      "çİ": 396,
      "å½": 397,
      "ç§": 398,
      "è§": 399,
      "Ġe": 400,
      "åĵ": 401,
      "çŃ": 402,
      "æĸĩ": 403,
      "å¼": 404,
      "us": 405,
      "è¦": 406,
      "èĥ½": 407,
      "00": 408,
      "çĽ": 409,
      "ä¸ĭ": 410,
      "è¦ģ": 411,
      "et": 412,
      "èĢ": 413,
      "ä¸į": 414,
      "çļĦæ": 415,
      "æķ°": 416,
      "el": 417,
      "Ġn": 418,
      "çĶŁ": 419,
      "ä¸Ģä¸ª": 420,
      "Ġ2": 421,
      "éĿ": 422,
      "ol": 423,
      "è´": 424,
      "om": 425,
      "åı¯ä»¥": 426,
      "Ġl": 427,
      "ä»¬": 428,
      "æĪĲ": 429,
      "åĩº": 430,
      "æĹ¶": 431,
      "ĠT": 432,
      "¦Ĥ": 433,
      "ä¹ĭ": 434,
      "ä½ľ": 435,
      "æ³": 436,
      "ĠA": 437,
      "åİ": 438,
      "iv": 439,
      "å°ı": 440,
      "å¯¹": 441,
      "Ġis": 442,
      "Ġst": 443,
      "æĦ": 444,
      "æĬ": 445,
      "è¡Į": 446,
      "ä¸Ĭ": 447,
      "æ¯": 448,
      "åĪ°": 449,
      "ig": 450,
      "æ¬": 451,
      "çĲ": 452,
      "æ°": 453,
      "çº": 454,
      "åŃĲ": 455,
      "Ġr": 456,
      "æı": 457,
      "Ġg": 458,
      "æĥ": 459,
      "æĿ¥": 460,
      "ä¼ļ": 461,
      "å¦Ĥ": 462,
      "ä¿": 463,
      "im": 464,
      "è¾": 465,
      "èĩ": 466,
      "æĭ": 467,
      "æİ": 468,
      "æĮ": 469,
      "å¥½": 470,
      "äºİ": 471,
      "ce": 472,
      "un": 473,
      "ä»ĸ": 474,
      "å®ļ": 475,
      "èµ": 476,
      "æŀľ": 477,
      "ç®": 478,
      "st": 479,
      "Ġbe": 480,
      "am": 481,
      "çŃī": 482,
      "ä¾": 483,
      "åĬ¨": 484,
      "ĠS": 485,
      "ä½ł": 486,
      "ver": 487,
      "æµ": 488,
      "å¿": 489,
      "æį": 490,
      "ut": 491,
      "é¢ĺ": 492,
      "ot": 493,
      "ate": 494,
      "æĽ": 495,
      "ly": 496,
      "ri": 497,
      "ation": 498,
      "qu": 499,
      "and": 500,
      "åľ°": 501,
      "çĻ": 502,
      "è¯·": 503,
      "ch": 504,
      "åŃ¦": 505,
      "éĻ": 506,
      "45": 507,
      "Ġfor": 508,
      "id": 509,
      "ç»Ļ": 510,
      "æľ¬": 511,
      "æĻ": 512,
      "é£": 513,
      "æĶ": 514,
      "ad": 515,
      "å¤§": 516,
      "Ġ\"": 517,
      "ĠP": 518,
      "æ±": 519,
      "å°Ĩ": 520,
      "æĸ¹": 521,
      "Ġon": 522,
      "çī©": 523,
      "è¯¥": 524,
      "å¤ļ": 525,
      "å¤©": 526,
      "ç±": 527,
      "Ġper": 528,
      "ow": 529,
      "å±": 530,
      "å·¥": 531,
      "ï¼Ľ": 532,
      "ay": 533,
      "Ġas": 534,
      "æľĢ": 535,
      "30": 536,
      "éľ": 537,
      "åĲĮ": 538,
      "éĿ¢": 539,
      "èī": 540,
      "Ġby": 541,
      "ir": 542,
      "éĺ": 543,
      "æĺİ": 544,
      "æıĲ": 545,
      "if": 546,
      "å®ĥ": 547,
      "åħ¶": 548,
      "éĹ´": 549,
      "ĠC": 550,
      "15": 551,
      "èĩª": 552,
      "ter": 553,
      "å¹¶": 554,
      "ur": 555,
      "æ¸": 556,
      "ç¬": 557,
      "è½": 558,
      "æį®": 559,
      "äºĽ": 560,
      "åħ³": 561,
      "çİ°": 562,
      "ĠM": 563,
      "éĩį": 564,
      "Ġwas": 565,
      "Ġthat": 566,
      "åºĶ": 567,
      "æĽ´": 568,
      "éĹ®": 569,
      "Ġ3": 570,
      "æĤ": 571,
      "åĬł": 572,
      "æ³ķ": 573,
      "è¿ĩ": 574,
      "çĦ": 575,
      "åıĳ": 576,
      "ul": 577,
      "âĢľ": 578,
      "âĢĿ": 579,
      "æĢ§": 580,
      "çĲĨ": 581,
      "cent": 582,
      "ä½ĵ": 583,
      "åĽł": 584,
      "çļĦç": 585,
      "åı¥": 586,
      "æ¡": 587,
      "æ²": 588,
      "ist": 589,
      "è°": 590,
      "è¯Ń": 591,
      "éľĢ": 592,
      "è¡¨": 593,
      "æ´": 594,
      "çĻ¾": 595,
      "åī": 596,
      "ĠB": 597,
      "ç§į": 598,
      "her": 599,
      "ith": 600,
      "Ġ6": 601,
      "ç«": 602,
      "éģ": 603,
      "Ġthis": 604,
      "æĪĸ": 605,
      "ity": 606,
      "ge": 607,
      "é«": 608,
      "å¾Ĺ": 609,
      "ĠI": 610,
      "æ®": 611,
      "ç³": 612,
      "oun": 613,
      "Wh": 614,
      "çĦ¶": 615,
      "ich": 616,
      "çĤ": 617,
      "Ġ8": 618,
      "å¸¸": 619,
      "ä¸İ": 620,
      "Ġ@": 621,
      "æĦŁ": 622,
      "é«ĺ": 623,
      "èĬ": 624,
      "è¿Ľ": 625,
      "éĩı": 626,
      "åįķ": 627,
      "ç±»": 628,
      "est": 629,
      "ect": 630,
      "çĽ¸": 631,
      "ment": 632,
      "Ġ7": 633,
      "Ġ0": 634,
      "åº¦": 635,
      "æĪĳä»¬": 636,
      "ĠThe": 637,
      "çĻ¾åĪĨ": 638,
      "os": 639,
      "ä¹Ī": 640,
      "ers": 641,
      "ä½¿": 642,
      "åĵģ": 643,
      "åĵª": 644,
      "Ġpercent": 645,
      "åħ·": 646,
      "åĢ": 647,
      "è¯į": 648,
      "ain": 649,
      "åģ": 650,
      "åŁ": 651,
      "res": 652,
      "çľ": 653,
      "Ġ(": 654,
      "æīĢ": 655,
      "æ®µ": 656,
      "å¹´": 657,
      "çĻ¾åĪĨä¹ĭ": 658,
      "åĬĽ": 659,
      "ĠçĻ¾åĪĨä¹ĭ": 660,
      "Ġwith": 661,
      "èĢħ": 662,
      "è®¡": 663,
      "æĪ·": 664,
      "ds": 665,
      "èī²": 666,
      "è¶": 667,
      "ac": 668,
      "Ġv": 669,
      "igh": 670,
      "ç¾": 671,
      "ld": 672,
      "æľº": 673,
      "æĸ°": 674,
      "Ġ5": 675,
      "åĲį": 676,
      "ab": 677,
      "éĤ": 678,
      "ec": 679,
      "ä¸ī": 680,
      "pp": 681,
      "éľĢè¦ģ": 682,
      "æŃ¤": 683,
      "èĭ": 684,
      "å®¶": 685,
      "åĲİ": 686,
      "çĶµ": 687,
      "Ġ9": 688,
      "è¿Ļä¸ª": 689,
      "åĳ¨äº": 690,
      "Ġpro": 691,
      "æĤ¨": 692,
      "ill": 693,
      "ive": 694,
      "åĲĪ": 695,
      "Ġal": 696,
      "ess": 697,
      "th": 698,
      "éĶ": 699,
      "åĮĸ": 700,
      "end": 701,
      "çŁ": 702,
      "Ġ'": 703,
      "em": 704,
      "Ġit": 705,
      "ä¹Ł": 706,
      "ç®Ĺ": 707,
      "æ±Ĥ": 708,
      "ew": 709,
      "æĥħ": 710,
      "ue": 711,
      "å½ĵ": 712,
      "ç¨": 713,
      "æĹ¥": 714,
      "Ġ=": 715,
      "ä»¥ä¸ĭ": 716,
      "çĿ": 717,
      "Ġat": 718,
      "è§£": 719,
      "ä¸»": 720,
      "ore": 721,
      "åħ¥": 722,
      "é¦": 723,
      "éĢļ": 724,
      "è±": 725,
      "Ġ4": 726,
      "é¡": 727,
      "å½±": 728,
      "Ġsh": 729,
      "âĢĶ": 730,
      "éĢī": 731,
      "Ġcon": 732,
      "oo": 733,
      "æģ": 734,
      "èĢĮ": 735,
      "Ġcom": 736,
      "ĠH": 737,
      "æ¯Ķ": 738,
      "ight": 739,
      "Ġ19": 740,
      "åĿ": 741,
      "éĹ®é¢ĺ": 742,
      "å¾Ī": 743,
      "æĸĩæľ¬": 744,
      "cc": 745,
      "åĸ": 746,
      "åħ¬": 747,
      "æ¬¡": 748,
      "ĠF": 749,
      "ç¾İ": 750,
      "Ġwh": 751,
      "éĩĮ": 752,
      "ĠW": 753,
      "um": 754,
      "ç©": 755,
      "è¢": 756,
      "ç»ĵ": 757,
      "æł¹": 758,
      "èĤ": 759,
      "ep": 760,
      "åŃĹ": 761,
      "ĠÃ": 762,
      "ak": 763,
      "ï¼ī": 764,
      "av": 765,
      "æ°Ķ": 766,
      "-@": 767,
      "Ġ@-@": 768,
      "å¼ı": 769,
      "ç¡": 770,
      "è·": 771,
      "çĤ¹": 772,
      "èĲ": 773,
      "Ġor": 774,
      "ä¿¡": 775,
      "ï¼Ī": 776,
      "éĽ": 777,
      "æĦı": 778,
      "éļ": 779,
      "éª": 780,
      "çĿĢ": 781,
      "ç¤": 782,
      "ç½": 783,
      "åĽ½": 784,
      "è¿ĺ": 785,
      "éħ": 786,
      "ä¸¤": 787,
      "å¿ĥ": 788,
      "Ġhe": 789,
      "éĤ£": 790,
      "éķ": 791,
      "éĥ": 792,
      "ç»ı": 793,
      "å»": 794,
      "ction": 795,
      "çİĩ": 796,
      "æ¡Ī": 797,
      "è¯Ħ": 798,
      "éĥ½": 799,
      "Ġun": 800,
      "æŁ": 801,
      "ĠD": 802,
      "æ¯ı": 803,
      "ç¨ĭ": 804,
      "åĽŀ": 805,
      "çķ": 806,
      "æ°´": 807,
      "è±¡": 808,
      "ĠPM": 809,
      "ä¾Ľ": 810,
      "Ġwe": 811,
      "é£İ": 812,
      "åĮħ": 813,
      "ä½¿çĶ¨": 814,
      "æŃ£": 815,
      "çĲĥ": 816,
      "æł¹æį®": 817,
      "åı¥åŃĲ": 818,
      "ould": 819,
      "ies": 820,
      "ort": 821,
      "è¿°": 822,
      "ĠÃĹ": 823,
      "äºĭ": 824,
      "Ġare": 825,
      "åıĸ": 826,
      "çĥ": 827,
      "ä¿Ŀ": 828,
      "up": 829,
      "åĨĻ": 830,
      "çī¹": 831,
      "çŃĶ": 832,
      "åķ": 833,
      "å®ŀ": 834,
      "åĪĹ": 835,
      "æ·": 836,
      "ĠR": 837,
      "æĥ³": 838,
      "è¢«": 839,
      "ant": 840,
      "åŀ": 841,
      "åĮº": 842,
      "çĽ®": 843,
      "ä»Ģ": 844,
      "æĹł": 845,
      "ä»İ": 846,
      "åĨħ": 847,
      "æĺ¯ä¸Ģ": 848,
      "Ġy": 849,
      "ç´": 850,
      "æıĲä¾Ľ": 851,
      "éĥ¨": 852,
      "å»º": 853,
      "æłĩ": 854,
      "åĵªä¸ª": 855,
      "ç¼": 856,
      "ç¡®": 857,
      "Which": 858,
      "Ġex": 859,
      "Ġus": 860,
      "èį": 861,
      "Ġsu": 862,
      "åİ»": 863,
      "åĽĽ": 864,
      "å¢": 865,
      "å¼Ģ": 866,
      "è¯´": 867,
      "éģĵ": 868,
      "éķ¿": 869,
      "è¿Ľè¡Į": 870,
      "qual": 871,
      "çĭ": 872,
      "åīį": 873,
      "åħĥ": 874,
      "éĢĤ": 875,
      "ç³»": 876,
      "ä½į": 877,
      "è®©": 878,
      "ä½Ĩ": 879,
      "all": 880,
      "æŃ¥": 881,
      "ap": 882,
      "ans": 883,
      "è´¨": 884,
      "æĿ¡": 885,
      "éĿŀ": 886,
      "rom": 887,
      "æĬĢ": 888,
      "å¤ĸ": 889,
      "å¥½çļĦ": 890,
      "ĠE": 891,
      "çĬ": 892,
      "ç¿": 893,
      "ĪĴ": 894,
      "ä»Ģä¹Ī": 895,
      "çĪ": 896,
      "åıĺ": 897,
      "åĪĻ": 898,
      "ĠG": 899,
      "å¤Ħ": 900,
      "èµ·": 901,
      "ä»£": 902,
      "our": 903,
      "Ġtr": 904,
      "æĮĩ": 905,
      "æł¼": 906,
      "ĠL": 907,
      "é£Ł": 908,
      "å·²": 909,
      "è®®": 910,
      "ĠN": 911,
      "Ġ12": 912,
      "ud": 913,
      "åħ¨": 914,
      "ject": 915,
      "åĪ¶": 916,
      "å°ĳ": 917,
      "èģ": 918,
      "çĶŁæĪĲ": 919,
      "å¹³": 920,
      "ail": 921,
      "Ġch": 922,
      "Ġle": 923,
      "ĠâĢĶ": 924,
      "åŀĭ": 925,
      "æīĭ": 926,
      "Ġ18": 927,
      "æľ¯": 928,
      "æģ¯": 929,
      "ust": 930,
      "ount": 931,
      "æĢģ": 932,
      "ä½ķ": 933,
      "vi": 934,
      "Ġfrom": 935,
      "å°ıæĺİ": 936,
      "éĴ": 937,
      "åıª": 938,
      "hu": 939,
      "ä¸ĢäºĽ": 940,
      "åıĹ": 941,
      "Ġ10": 942,
      "å¸Ĥ": 943,
      "art": 944,
      "çľĭ": 945,
      "å§": 946,
      "ä»¶": 947,
      "é»": 948,
      "Ġ+": 949,
      "æ»": 950,
      "çĶ±": 951,
      "se": 952,
      "æľŁ": 953,
      "éĹ¨": 954,
      "çł": 955,
      "te": 956,
      "Ġsc": 957,
      "op": 958,
      "åĸľ": 959,
      "å¦Ĥæŀľ": 960,
      "äº§": 961,
      "ç»Ħ": 962,
      "åĽłæŃ¤": 963,
      "æ¬¢": 964,
      "èĥ": 965,
      "æĿĥ": 966,
      "åľº": 967,
      "Ġde": 968,
      "éªĮ": 969,
      "Ġapp": 970,
      "è¯Ŀ": 971,
      "èº": 972,
      "éŁ": 973,
      "åĻ": 974,
      "Ġcomp": 975,
      "åħ±": 976,
      "ä¸ļ": 977,
      "åħŃ": 978,
      "ĠJ": 979,
      "od": 980,
      "Ġâ": 981,
      "éĿŀå¸¸": 982,
      "ated": 983,
      "åİĨ": 984,
      "å¸®": 985,
      "ç«ł": 986,
      "ä¸ŃçļĦ": 987,
      "æĻº": 988,
      "æ´»": 989,
      "oon": 990,
      "æĢ»": 991,
      "æĮī": 992,
      "fer": 993,
      "æľª": 994,
      "çĬ¶": 995,
      "æ¶": 996,
      "ç»Ļå®ļ": 997,
      "å£": 998,
      "é¥": 999,
      "ag": 1000,
      "10": 1001,
      "ç¯": 1002,
      "èº«": 1003,
      "bject": 1004,
      "ĠO": 1005,
      "Ġme": 1006,
      "åĻ¨": 1007,
      "Ġ)": 1008,
      "åĲĹ": 1009,
      "åįĪ": 1010,
      "The": 1011,
      "ä¹ł": 1012,
      "Ġcan": 1013,
      "per": 1014,
      "we": 1015,
      "æĸĩç«ł": 1016,
      "20": 1017,
      "è®¾": 1018,
      "è¨": 1019,
      "ç¥": 1020,
      "å½¢": 1021,
      "ell": 1022,
      "Ġ14": 1023,
      "è®¡ç®Ĺ": 1024,
      "å°±": 1025,
      "Ġne": 1026,
      "Ġse": 1027,
      "åĬ¡": 1028,
      "åĪ«": 1029,
      "Ġpl": 1030,
      "Ġtim": 1031,
      "%,": 1032,
      "èĬ±": 1033,
      "åı¯èĥ½": 1034,
      "åĳ¨äºĶ": 1035,
      "åĳ¨åħŃ": 1036,
      "æĺŁ": 1037,
      "éĺ³": 1038,
      "åĳ¨ä¸Ģ": 1039,
      "åĳ¨åĽĽ": 1040,
      "è°ĥ": 1041,
      "åĳ¨ä¸ī": 1042,
      "çģ": 1043,
      "view": 1044,
      "æķĪ": 1045,
      "ä¾ĭ": 1046,
      "å¯¹è±¡": 1047,
      "åıĬ": 1048,
      "åĳ¨äºĮ": 1049,
      "ĠâĪĴ": 1050,
      "çĶµå½±": 1051,
      "ãĢĭ": 1052,
      "ãĢĬ": 1053,
      "å·¥åħ·": 1054,
      "å±ķ": 1055,
      "é¸": 1056,
      "æĶ¾": 1057,
      "ook": 1058,
      "åħĪ": 1059,
      "æıı": 1060,
      "æł·": 1061,
      "Ġ11": 1062,
      "èı": 1063,
      "æĻºèĥ½": 1064,
      "èİ": 1065,
      "der": 1066,
      "è§Ħ": 1067,
      "Ġcl": 1068,
      "ç®Ģ": 1069,
      "åĪ©": 1070,
      "çĸ": 1071,
      "ame": 1072,
      "oc": 1073,
      "æķ°æį®": 1074,
      "åĩĨ": 1075,
      "åĪĽ": 1076,
      "çº¢": 1077,
      "æ¬¾": 1078,
      "ä¹Ĳ": 1079,
      "ç¿»": 1080,
      "ä¿¡æģ¯": 1081,
      "ĠĠ": 1082,
      "æĭ¬": 1083,
      "ard": 1084,
      "è¾ĵ": 1085,
      "ä»·": 1086,
      "åı£": 1087,
      "int": 1088,
      "çĮ": 1089,
      "è£": 1090,
      "Ġweight": 1091,
      "ç§ĳ": 1092,
      "æľĪ": 1093,
      "og": 1094,
      "æµ·": 1095,
      "Ġar": 1096,
      "'s": 1097,
      "Ġ15": 1098,
      "æµģ": 1099,
      "orm": 1100,
      "å®¹": 1101,
      "é¦ĸ": 1102,
      "Ġhis": 1103,
      "è¨Ģ": 1104,
      "æ¼": 1105,
      "ical": 1106,
      "Ġj": 1107,
      "èĭ±": 1108,
      "ance": 1109,
      "ä»»": 1110,
      "Ġband": 1111,
      "åĬ©": 1112,
      "èĻ": 1113,
      "ure": 1114,
      "èĪ": 1115,
      "åı²": 1116,
      "è¯ĳ": 1117,
      "æĮģ": 1118,
      "åħī": 1119,
      "Ġ20": 1120,
      "fter": 1121,
      "age": 1122,
      "è¯·æ±Ĥ": 1123,
      "å®ĥä»¬": 1124,
      "Ġsp": 1125,
      "æİ¨": 1126,
      "è´¦": 1127,
      "å·±": 1128,
      "è®º": 1129,
      "ning": 1130,
      "æ¨": 1131,
      "çŁ¥": 1132,
      "Ġab": 1133,
      "èĲ½": 1134,
      "éŁ³": 1135,
      "ä»ĸä»¬": 1136,
      "èĩªå·±": 1137,
      "Ġshould": 1138,
      "æĭ©": 1139,
      "Ġnot": 1140,
      "ç¬¬": 1141,
      "Ġk": 1142,
      "ip": 1143,
      "ç¯ĩ": 1144,
      "éĢīæĭ©": 1145,
      "Ġaction": 1146,
      "èĬĤ": 1147,
      "é¡¹": 1148,
      "åĬ¨ä½ľ": 1149,
      "gh": 1150,
      "éĢļè¿ĩ": 1151,
      "æııè¿°": 1152,
      "åĢ¼": 1153,
      "è¿ĻäºĽ": 1154,
      "éĵ": 1155,
      "ç»Ł": 1156,
      "æĸĻ": 1157,
      "æ³¨": 1158,
      "Ġ13": 1159,
      "Ġpo": 1160,
      "ç¤º": 1161,
      "åĸľæ¬¢": 1162,
      "åĲĦ": 1163,
      "ç¿»è¯ĳ": 1164,
      "ç²": 1165,
      "åĨ³": 1166,
      "very": 1167,
      "ç¬¦": 1168,
      "äº¤": 1169,
      "ial": 1170,
      "out": 1171,
      "ound": 1172,
      "å®ī": 1173,
      "Ġstat": 1174,
      "Ġev": 1175,
      "Ġtool": 1176,
      "Ġrequ": 1177,
      "Ġres": 1178,
      "Ġtheir": 1179,
      "Ġad": 1180,
      "ine": 1181,
      "çº§": 1182,
      "æ²¡": 1183,
      "åİŁ": 1184,
      "æ¸¸": 1185,
      "ber": 1186,
      "Ġ-": 1187,
      "è¿Ĳ": 1188,
      "ave": 1189,
      "åºı": 1190,
      "è¾ĥ": 1191,
      "Ġtw": 1192,
      "è¯ķ": 1193,
      "è¾¾": 1194,
      "ign": 1195,
      "æİĴ": 1196,
      "åķĨ": 1197,
      "æİ¥": 1198,
      "æ¸ħ": 1199,
      "æľį": 1200,
      "ĠIn": 1201,
      "çĪ±": 1202,
      "èĦ": 1203,
      "hol": 1204,
      "åĮħæĭ¬": 1205,
      "é©": 1206,
      "ere": 1207,
      "åıĭ": 1208,
      "ä¸¤ä¸ª": 1209,
      "ra": 1210,
      "çİ¯": 1211,
      "ä¸ĸ": 1212,
      "ack": 1213,
      "åĳ³": 1214,
      "æĹ¶éĹ´": 1215,
      "ick": 1216,
      "ov": 1217,
      "ility": 1218,
      "åĩł": 1219,
      "Ġint": 1220,
      "ence": 1221,
      "ice": 1222,
      "éĩĳ": 1223,
      "iz": 1224,
      "ä¸įåĲĮ": 1225,
      "ee": 1226,
      "æī¾": 1227,
      "ong": 1228,
      "è½¦": 1229,
      "Ġ16": 1230,
      "åŃ¦ä¹ł": 1231,
      "åºĶè¯¥": 1232,
      "æķ´": 1233,
      "åı¸": 1234,
      "What": 1235,
      "Ġass": 1236,
      "ä¹ī": 1237,
      "æŃĮ": 1238,
      "åİĨåı²": 1239,
      "Ġ17": 1240,
      "æº": 1241,
      "ik": 1242,
      "Ġdis": 1243,
      "Ġover": 1244,
      "ide": 1245,
      "ç¦": 1246,
      "ied": 1247,
      "du": 1248,
      "ult": 1249,
      "ations": 1250,
      "ç»ĵæŀľ": 1251,
      "å¤ĩ": 1252,
      "are": 1253,
      "ast": 1254,
      "åĳĬ": 1255,
      "ĠU": 1256,
      "åĽłä¸º": 1257,
      "Mon": 1258,
      "Ġstatus": 1259,
      "å¤ª": 1260,
      "Ġwor": 1261,
      "ç»Ļåĩº": 1262,
      "çĬ¶æĢģ": 1263,
      "å¤ĦçĲĨ": 1264,
      "ĠAM": 1265,
      "Fri": 1266,
      "çĶ¨æĪ·": 1267,
      "Ġall": 1268,
      "get": 1269,
      "ough": 1270,
      "Wed": 1271,
      "è§Ĥ": 1272,
      "Ġwere": 1273,
      "Thu": 1274,
      "æĻ¯": 1275,
      "Ġ08": 1276,
      "Sat": 1277,
      "Tue": 1278,
      "çħ": 1279,
      "Ġtwo": 1280,
      "ä¹¦": 1281,
      "Ġobject": 1282,
      "Ġafter": 1283,
      "Ġthres": 1284,
      "æ£": 1285,
      "Ġthreshol": 1286,
      "åį³": 1287,
      "éĻ©": 1288,
      "æ¨¡": 1289,
      "ç©º": 1290,
      "æ·±": 1291,
      "Ġrec": 1292,
      "Ġwhich": 1293,
      "ç³ĸ": 1294,
      "æĬĢæľ¯": 1295,
      "hen": 1296,
      "Ġinc": 1297,
      "Ġreview": 1298,
      "æĢĿ": 1299,
      "å¥¹": 1300,
      "Ġrate": 1301,
      "çķĮ": 1302,
      "æĶ¯": 1303,
      "Ġen": 1304,
      "åĳĺ": 1305,
      "å¦Ĥä½ķ": 1306,
      "å¤Ł": 1307,
      "èıľ": 1308,
      "tend": 1309,
      "åĬŁ": 1310,
      "Ġup": 1311,
      "åŁİ": 1312,
      "æī§": 1313,
      "éļı": 1314,
      "é¤": 1315,
      "æĬ¥": 1316,
      "æļ": 1317,
      "åħĭ": 1318,
      "osit": 1319,
      "è´¦æĪ·": 1320,
      "æĿĥéĩį": 1321,
      "ear": 1322,
      "äººå·¥": 1323,
      "è¶Ĭ": 1324,
      "ire": 1325,
      "èĮ": 1326,
      "æĺ¯ä¸Ģä¸ª": 1327,
      "ely": 1328,
      "å®Į": 1329,
      "ç¬Ķ": 1330,
      "é¤Ĳ": 1331,
      "Ġday": 1332,
      "pt": 1333,
      "åĵį": 1334,
      "Ġag": 1335,
      "æ²¡æľī": 1336,
      "ability": 1337,
      "è¿ĳ": 1338,
      "å¸¦": 1339,
      "çº¦": 1340,
      "åģļ": 1341,
      "ace": 1342,
      "Ġstep": 1343,
      "åħ¬åı¸": 1344,
      "åĲĳ": 1345,
      "port": 1346,
      "åŁº": 1347,
      "Ġte": 1348,
      "è·¯": 1349,
      "æĵ": 1350,
      "ome": 1351,
      "ff": 1352,
      "anc": 1353,
      "å¢ĥ": 1354,
      "äººå·¥æĻºèĥ½": 1355,
      "å¼º": 1356,
      "ict": 1357,
      "éĻ¤": 1358,
      "ä»½": 1359,
      "æĶ¹": 1360,
      "çĹ": 1361,
      "æ¸©": 1362,
      "åĽŀçŃĶ": 1363,
      "é¢Ħ": 1364,
      "è¯Ĺ": 1365,
      "ord": 1366,
      "æ¯ıä¸ª": 1367,
      "åģ¥": 1368,
      "æī§è¡Į": 1369,
      "Ġsteps": 1370,
      "åĲ¦": 1371,
      "ä¼ł": 1372,
      "âĢĵ": 1373,
      "éħį": 1374,
      "èĩªçĦ¶": 1375,
      "çĬ¶æĢģä¸º": 1376,
      "Ġmat": 1377,
      "Ġscore": 1378,
      "Ġhad": 1379,
      "æĳ": 1380,
      "įä½ľ": 1381,
      "Ġqual": 1382,
      "æķħ": 1383,
      "de": 1384,
      "ccount": 1385,
      "é¢Ĩ": 1386,
      "è¯Ńè¨Ģ": 1387,
      "çŃĶæ¡Ī": 1388,
      "æĻļ": 1389,
      "Ġtak": 1390,
      "æŀģ": 1391,
      "ange": 1392,
      "éĩįè¦ģ": 1393,
      "åĲ«": 1394,
      "å·®": 1395,
      "æł¸": 1396,
      "ä¹ĭéĹ´": 1397,
      "pl": 1398,
      "Ġbet": 1399,
      "åĿĩ": 1400,
      "åŃĺ": 1401,
      "ther": 1402,
      "åĲĮæĹ¶": 1403,
      "ory": 1404,
      "19": 1405,
      "Ġhave": 1406,
      "ä¹°": 1407,
      "å¿«": 1408,
      "éĶ®": 1409,
      "æµĭ": 1410,
      "Ġequal": 1411,
      "ä»Ĭ": 1412,
      "ost": 1413,
      "Ġstr": 1414,
      "èĳ": 1415,
      "ç´ł": 1416,
      "ccess": 1417,
      "åĪĨç±»": 1418,
      "irst": 1419,
      "reate": 1420,
      "Ġret": 1421,
      "çĻ½": 1422,
      "çİ°åľ¨": 1423,
      "åĨį": 1424,
      "ï¼ģ": 1425,
      "å±±": 1426,
      "åħ³äºİ": 1427,
      "çŁŃ": 1428,
      "ç§¯": 1429,
      "éĤ£ä¹Ī": 1430,
      "``": 1431,
      "ĠK": 1432,
      "å¥³": 1433,
      "çı": 1434,
      "å¸®åĬ©": 1435,
      "Ġrequest": 1436,
      "çļĦä¸Ģ": 1437,
      "Ġgr": 1438,
      "ous": 1439,
      "Ġsl": 1440,
      "ood": 1441,
      "è½¬": 1442,
      "act": 1443,
      "ia": 1444,
      "ç±³": 1445,
      "å¤į": 1446,
      "èĢĥ": 1447,
      "æĸŃ": 1448,
      "Ġone": 1449,
      "æľĭ": 1450,
      "å¤±": 1451,
      "ç½ĳ": 1452,
      "è¯Ĩ": 1453,
      "rit": 1454,
      "ach": 1455,
      "æīĢæľī": 1456,
      "è¥": 1457,
      "æĬĬ": 1458,
      "åħ¶ä»ĸ": 1459,
      "Ġoper": 1460,
      "åŁŁ": 1461,
      "vo": 1462,
      "form": 1463,
      "å¯¼": 1464,
      "è½»": 1465,
      "æľĭåıĭ": 1466,
      "åĶ": 1467,
      "è´¹": 1468,
      "å§ĭ": 1469,
      "Ġdo": 1470,
      "å½±åĵį": 1471,
      "æºĲ": 1472,
      "Ġcont": 1473,
      "ä¸»é¢ĺ": 1474,
      "å®¢": 1475,
      "%ï¼Į": 1476,
      "ç¼ĸ": 1477,
      "Ġ09": 1478,
      "è¥¿": 1479,
      "åºĶçĶ¨": 1480,
      "æīĢä»¥": 1481,
      "åı·": 1482,
      "åįķè¯į": 1483,
      "ç»Ĩ": 1484,
      "è®°": 1485,
      "èĥ½å¤Ł": 1486,
      "ä»ĺ": 1487,
      "ä¾ĭå¦Ĥ": 1488,
      "ä¸Ķ": 1489,
      "ä¸ĸçķĮ": 1490,
      "èµĦ": 1491,
      "æīĵ": 1492,
      "å¼ķ": 1493,
      "Ġthresholds": 1494,
      "çīĩ": 1495,
      "so": 1496,
      "æ¦Ĥ": 1497,
      "éĢł": 1498,
      "Ġfirst": 1499,
      "æĹħ": 1500,
      "ry": 1501,
      "åħ³éĶ®": 1502,
      "åĩı": 1503,
      "å·¥ä½ľ": 1504,
      "tendee": 1505,
      "ass": 1506,
      "å¤ļå°ĳ": 1507,
      "ween": 1508,
      "å»ºè®®": 1509,
      "å®¡": 1510,
      "æ»¡": 1511,
      "ary": 1512,
      "Ġits": 1513,
      "åĢĻ": 1514,
      "æĲ": 1515,
      "è®¤": 1516,
      "çº¿": 1517,
      "Ġim": 1518,
      "çļĦæĥ": 1519,
      "åĬ¨çī©": 1520,
      "ful": 1521,
      "ä¼ĺ": 1522,
      "ile": 1523,
      "¹æŀľ": 1524,
      "èģĶ": 1525,
      "ual": 1526,
      "åĪ°äºĨ": 1527,
      "Ġout": 1528,
      "Ġbetween": 1529,
      "èĭ¹æŀľ": 1530,
      "ions": 1531,
      "å¤´": 1532,
      "ase": 1533,
      "åĨµ": 1534,
      "ree": 1535,
      "Ġtime": 1536,
      "ĠSt": 1537,
      "Â·": 1538,
      "Ġeven": 1539,
      "è®¸": 1540,
      "æŀĦ": 1541,
      "èİ·": 1542,
      "éĺŁ": 1543,
      "ç¤¾": 1544,
      "vel": 1545,
      "æĸ¹å¼ı": 1546,
      "çĶ·": 1547,
      "æĸ¹æ³ķ": 1548,
      "ä¸Ģä¸ĭ": 1549,
      "Ġbut": 1550,
      "åıĳå±ķ": 1551,
      "æĸ¯": 1552,
      "è§Ĵ": 1553,
      "è´¨éĩı": 1554,
      "èĽ": 1555,
      "åĲĥ": 1556,
      "ey": 1557,
      "é¦Ļ": 1558,
      "äºĮ": 1559,
      "ub": 1560,
      "hed": 1561,
      "æŁ¥": 1562,
      "Ġlik": 1563,
      "è§Ĩ": 1564,
      "sp": 1565,
      "é¢Ŀ": 1566,
      "rov": 1567,
      "è¯»": 1568,
      "Ġ|": 1569,
      "åħ¶ä¸Ń": 1570,
      "å¢ŀ": 1571,
      "12": 1572,
      "æĽ´åĬł": 1573,
      "çĭĹ": 1574,
      "çĽ´": 1575,
      "eting": 1576,
      "ä¼¼": 1577,
      "ç¥ŀ": 1578,
      "å²": 1579,
      "äººä»¬": 1580,
      "ç»Ń": 1581,
      "åıį": 1582,
      "wn": 1583,
      "æķħäºĭ": 1584,
      "Ġpre": 1585,
      "ç½®": 1586,
      "æķ°åŃĹ": 1587,
      "äººç±»": 1588,
      "åº·": 1589,
      "ie": 1590,
      "çĶŁæ´»": 1591,
      "çĮ«": 1592,
      "çĥŃ": 1593,
      "æĹ¶æ®µ": 1594,
      "Ġalso": 1595,
      "ç»Ī": 1596,
      "åŁİå¸Ĥ": 1597,
      "çľŁ": 1598,
      "Ġmor": 1599,
      "éĽĨ": 1600,
      "ç©¶": 1601,
      "æľĽ": 1602,
      "éĩĩ": 1603,
      "åĮ»": 1604,
      "ç»ĻæĪĳ": 1605,
      "ries": 1606,
      "æ¤": 1607,
      "Ġoperation": 1608,
      "èįĲ": 1609,
      "éĶĻ": 1610,
      "å¸ĥ": 1611,
      "èĩ³": 1612,
      "è§ī": 1613,
      "æ¢": 1614,
      "å¹¿": 1615,
      "è´Ń": 1616,
      "ress": 1617,
      "ç³»ç»Ł": 1618,
      "ç«ĭ": 1619,
      "own": 1620,
      "Ġreviewer": 1621,
      "ens": 1622,
      "è¯ī": 1623,
      "ish": 1624,
      "Ġmore": 1625,
      "å¦": 1626,
      "è¶³": 1627,
      "Ġrun": 1628,
      "çļĦæĥħ": 1629,
      "Ġinter": 1630,
      "äºĨä¸Ģ": 1631,
      "ä»¥åıĬ": 1632,
      "çħ§": 1633,
      "ç§°": 1634,
      "11": 1635,
      "ang": 1636,
      "Ġmorning": 1637,
      "é£İéĻ©": 1638,
      "è¾ĵåħ¥": 1639,
      "Ġevery": 1640,
      "Ġhas": 1641,
      "åĳ½": 1642,
      "æĿĲ": 1643,
      "000": 1644,
      "ified": 1645,
      "æĪĺ": 1646,
      "åŃ£": 1647,
      "è®¾è®¡": 1648,
      "è§ģ": 1649,
      "oll": 1650,
      "è¯¯": 1651,
      "åģ¥åº·": 1652,
      "Ġslot": 1653,
      "ä¹ĭä¸Ģ": 1654,
      "Ġav": 1655,
      "ck": 1656,
      "å¾ĹåĪ°": 1657,
      "æİ¨èįĲ": 1658,
      "able": 1659,
      "ä¸Ģç¯ĩ": 1660,
      "éĢŁ": 1661,
      "çİ¯å¢ĥ": 1662,
      "ç»Ļå®ļçļĦ": 1663,
      "åĥ": 1664,
      "èĤī": 1665,
      "è°¢": 1666,
      "oth": 1667,
      "çłģ": 1668,
      "ç¿»è¯ĳæĪĲ": 1669,
      "çĦ¶åĲİ": 1670,
      "æŀĲ": 1671,
      "æĵįä½ľ": 1672,
      "Ķç©¶": 1673,
      "ark": 1674,
      "ĠCh": 1675,
      "æ¡£": 1676,
      "åĽ¾": 1677,
      "Ġcla": 1678,
      "ĠIt": 1679,
      "èĩ´": 1680,
      "Ġrat": 1681,
      "Ġevening": 1682,
      "Ġå·²": 1683,
      "ä½İ": 1684,
      "ç®¡": 1685,
      "noon": 1686,
      "åı¤": 1687,
      "åĪĴ": 1688,
      "æ¼Ķ": 1689,
      "æĬ¤": 1690,
      "Ġafternoon": 1691,
      "æĿ¾": 1692,
      "æĺĵ": 1693,
      "ä¸ŃåĽ½": 1694,
      "ade": 1695,
      "Re": 1696,
      "Ġinto": 1697,
      "ian": 1698,
      "bh": 1699,
      "æĪĸèĢħ": 1700,
      "Ġavail": 1701,
      "åī©": 1702,
      "ä¿®": 1703,
      "mer": 1704,
      "æĶ¶": 1705,
      "isk": 1706,
      "Ġmatch": 1707,
      "Ġweights": 1708,
      "Ġnoon": 1709,
      "è£ħ": 1710,
      "bhook": 1711,
      "å¤©æ°Ķ": 1712,
      "ä¸½": 1713,
      "å±ŀ": 1714,
      "é¢ĨåŁŁ": 1715,
      "ĠV": 1716,
      "æĺ¯ä¸Ģç§į": 1717,
      "Ġonly": 1718,
      "Ġfl": 1719,
      "èħ": 1720,
      "é»ĳ": 1721,
      "ĠMon": 1722,
      "Ġincl": 1723,
      "éĩĬ": 1724,
      "ä¼ļè®®": 1725,
      "è¾¹": 1726,
      "åĪĨæŀĲ": 1727,
      "ä¸»è¦ģ": 1728,
      "åĨħå®¹": 1729,
      "åı¥è¯Ŀ": 1730,
      "Ġvi": 1731,
      "èµ°": 1732,
      "çļĦäºº": 1733,
      "äº§åĵģ": 1734,
      "èĽĭ": 1735,
      "ç³ĸæŀľ": 1736,
      "æıĲé«ĺ": 1737,
      "åĪ¤": 1738,
      "çĭ¬": 1739,
      "Ġhist": 1740,
      "Ġuser": 1741,
      "Ġquality": 1742,
      "è®¢": 1743,
      "ï¼ļâĢľ": 1744,
      "åħ·ä½ĵ": 1745,
      "åĭ": 1746,
      "å¤ı": 1747,
      "æħ": 1748,
      "é²": 1749,
      "æ§": 1750,
      "éŁ³ä¹Ĳ": 1751,
      "åıĤ": 1752,
      "ä½Ĩæĺ¯": 1753,
      "çŃīçº§": 1754,
      "ä¾¿": 1755,
      "Ġyou": 1756,
      "ĠTh": 1757,
      "åĥı": 1758,
      "æľºåĻ¨": 1759,
      "Ġgiv": 1760,
      "Ġher": 1761,
      "lete": 1762,
      "ates": 1763,
      "åĽŃ": 1764,
      "ä»ĭ": 1765,
      "åĪĹè¡¨": 1766,
      "æķĻ": 1767,
      "Ġno": 1768,
      "Ġyear": 1769,
      "Ġwork": 1770,
      "Ġam": 1771,
      "çīĽ": 1772,
      "ansfer": 1773,
      "Ġcre": 1774,
      "ositive": 1775,
      "ru": 1776,
      "erv": 1777,
      "è§ĦåĪĻ": 1778,
      "èĥ½åĬĽ": 1779,
      "Ġtimes": 1780,
      "æ¨¡åŀĭ": 1781,
      "ional": 1782,
      "ib": 1783,
      "Ġsy": 1784,
      "io": 1785,
      "è¦ģæ±Ĥ": 1786,
      "çĽ®æłĩ": 1787,
      "ific": 1788,
      "ç¢": 1789,
      "å¤ľ": 1790,
      "æĸ¹éĿ¢": 1791,
      "Ġman": 1792,
      "èĢģ": 1793,
      "ç¦»": 1794,
      "äº«": 1795,
      "Ġavailability": 1796,
      "ule": 1797,
      "å¾ħ": 1798,
      "ãĢĤâĢĿ": 1799,
      "ä½łçļĦ": 1800,
      "å®īåħ¨": 1801,
      "æľįåĬ¡": 1802,
      "und": 1803,
      "è¶£": 1804,
      "ĠHe": 1805,
      "bers": 1806,
      "ĠâĢĶâĢĶ": 1807,
      "çļĦæĦ": 1808,
      "ater": 1809,
      "éļ¾": 1810,
      "é»Ħ": 1811,
      "å°½": 1812,
      "Ġwill": 1813,
      "æľªæĿ¥": 1814,
      "Ġdes": 1815,
      "æį¢": 1816,
      "åĳĬè¯ī": 1817,
      "éĻĲ": 1818,
      "é¸¡": 1819,
      "icket": 1820,
      "At": 1821,
      "ä¼ļèĢħ": 1822,
      "ç²¾": 1823,
      "åĲ¬": 1824,
      "ä¸İä¼ļèĢħ": 1825,
      "åħħ": 1826,
      "Ġso": 1827,
      "åħ·æľī": 1828,
      "Ġfe": 1829,
      "Ġind": 1830,
      "æİ¢": 1831,
      "list": 1832,
      "å¡": 1833,
      "æĺ¯åĲ¦": 1834,
      "one": 1835,
      "å£°": 1836,
      "rib": 1837,
      "éĢļå¸¸": 1838,
      "æ¶Ī": 1839,
      "ç´¢": 1840,
      "ä»Ĭå¤©": 1841,
      "å¼ł": 1842,
      "æ§Ľ": 1843,
      "å·²ç»ı": 1844,
      "æĸĩåĮĸ": 1845,
      "ution": 1846,
      "Ġwho": 1847,
      "date": 1848,
      "éĹ¨æ§Ľ": 1849,
      "Ġother": 1850,
      "åįİ": 1851,
      "åįĩ": 1852,
      "æĪĲåĬŁ": 1853,
      "Ġqu": 1854,
      "Ġro": 1855,
      "å¾ĭ": 1856,
      "Ġrule": 1857,
      "ä½Ļ": 1858,
      "æľīæķĪ": 1859,
      "èįī": 1860,
      "create": 1861,
      "13": 1862,
      "èĥľ": 1863,
      "çĶ¨äºİ": 1864,
      "è¡£": 1865,
      "è¡¨è¾¾": 1866,
      "tr": 1867,
      "Ġ200": 1868,
      "èĩªå·±çļĦ": 1869,
      "Ġval": 1870,
      "urn": 1871,
      "é¥®": 1872,
      "Ġthey": 1873,
      "Ġwhen": 1874,
      "ts": 1875,
      "è§£åĨ³": 1876,
      "çĹħ": 1877,
      "èµĶ": 1878,
      "çĸĹ": 1879,
      "ĠFri": 1880,
      "éĢĤåĲĪ": 1881,
      "å¯Ĩ": 1882,
      "Ġequally": 1883,
      "ind": 1884,
      "å½Ĵ": 1885,
      "Ġprodu": 1886,
      "è¯ģ": 1887,
      "ĠSat": 1888,
      "è®¸å¤ļ": 1889,
      "ä¸Ńæĸĩ": 1890,
      "é©¬": 1891,
      "ccessful": 1892,
      "å¼Ģå§ĭ": 1893,
      "igned": 1894,
      "ient": 1895,
      "Ġgo": 1896,
      "èµĽ": 1897,
      "è¾ĵåĩº": 1898,
      "Ġboth": 1899,
      "èĭ±æĸĩ": 1900,
      "Ġrange": 1901,
      "æ©": 1902,
      "å°Ķ": 1903,
      "æķ°éĩı": 1904,
      "åĦ": 1905,
      "Ġdoes": 1906,
      "åĵªä¸ªå·¥åħ·": 1907,
      "åĲ¸": 1908,
      "èµĶä»ĺ": 1909,
      "æŃ¤å¤ĸ": 1910,
      "å¥¶": 1911,
      "æľĢç»Ī": 1912,
      "äºĶ": 1913,
      "çłĶç©¶": 1914,
      "åĮĹ": 1915,
      "ose": 1916,
      "å£«": 1917,
      "Ġclaim": 1918,
      "17": 1919,
      "ĠWed": 1920,
      "ailed": 1921,
      "rough": 1922,
      "les": 1923,
      "ĠThu": 1924,
      "æĪĲä¸º": 1925,
      "æī¹": 1926,
      "è¿ľ": 1927,
      "æĽ²": 1928,
      "ĠTue": 1929,
      "Attendee": 1930,
      "è§£éĩĬ": 1931,
      "ided": 1932,
      "æŃ£ç¡®": 1933,
      "ren": 1934,
      "Ġbec": 1935,
      "ors": 1936,
      "å¤ªéĺ³": 1937,
      "åĳ¢": 1938,
      "ove": 1939,
      "å¹³åĿĩ": 1940,
      "Account": 1941,
      "æłĳ": 1942,
      "æŀĹ": 1943,
      "Ġdep": 1944,
      "ä¸Ģèµ·": 1945,
      "æĭī": 1946,
      "åı¦": 1947,
      "Ġbeen": 1948,
      "åıĳçİ°": 1949,
      "igher": 1950,
      "çĽ¸åħ³": 1951,
      "æĸ°çļĦ": 1952,
      "æīį": 1953,
      "åĮºæ®µ": 1954,
      "è¿ĲåĬ¨": 1955,
      "lic": 1956,
      "oy": 1957,
      "èĳĹ": 1958,
      "ier": 1959,
      "ative": 1960,
      "çĨ": 1961,
      "è¡¨ç¤º": 1962,
      "ç§ĭ": 1963,
      "ä»ĸçļĦ": 1964,
      "æĸĩæ¡Ī": 1965,
      "èĵ": 1966,
      "æĪĳæĥ³": 1967,
      "ond": 1968,
      "Ġ;": 1969,
      "gan": 1970,
      "çĶ»": 1971,
      "è®²": 1972,
      "Ġperform": 1973,
      "æĽ´å¤ļ": 1974,
      "ä¸ĭåįĪ": 1975,
      "Ġinclud": 1976,
      "åĽ¢": 1977,
      "éº": 1978,
      "çļĦæ°": 1979,
      "æĪı": 1980,
      "Ġapprov": 1981,
      "ä¸Ģæ®µ": 1982,
      "é¢ĺçĽ®": 1983,
      "éĹ»": 1984,
      "Will": 1985,
      "webhook": 1986,
      "In": 1987,
      "é±": 1988,
      "å½ĵçĦ¶": 1989,
      "éĽ¨": 1990,
      "18": 1991,
      "é¦ĸåħĪ": 1992,
      "ite": 1993,
      "Ġpart": 1994,
      "ç»´": 1995,
      "æ´»åĬ¨": 1996,
      "çĶŁæĪĲä¸Ģä¸ª": 1997,
      "å½ķ": 1998,
      "åĽ´": 1999,
      "ake": 2000,
      "Ġplay": 2001,
      "é±¼": 2002,
      "ancel": 2003,
      "æ²¹": 2004,
      "ä¾Ŀ": 2005,
      "Ġä¸Ģ": 2006,
      "æķ°åŃ¦": 2007,
      "æ¯į": 2008,
      "cancel": 2009,
      "è¿ĩç¨ĭ": 2010,
      "åıĪ": 2011,
      "Ġdec": 2012,
      "Ġnew": 2013,
      "æĪĳçļĦ": 2014,
      "åħ³éĶ®è¯į": 2015,
      "èīº": 2016,
      "å¯¹äºİ": 2017,
      "ĠçļĦ": 2018,
      "å°ıè¯´": 2019,
      "ä¸ĭéĿ¢": 2020,
      "Ġstand": 2021,
      "lect": 2022,
      "åİħ": 2023,
      "æŃ¥æķ°": 2024,
      "æĪ¿": 2025,
      "çª": 2026,
      "Ġabout": 2027,
      "çģ«": 2028,
      "ä»ħ": 2029,
      "ä»·æł¼": 2030,
      "ased": 2031,
      "åŃĺåľ¨": 2032,
      "Ġused": 2033,
      "åŃ©": 2034,
      "æĴ": 2035,
      "Ġthan": 2036,
      "ãĢĤ\\": 2037,
      "å¨": 2038,
      "iss": 2039,
      "åĮºéĹ´": 2040,
      "Ġviol": 2041,
      "åĦ¿": 2042,
      "æĪĳä»¬åı¯ä»¥": 2043,
      "ç»ĥ": 2044,
      "é£ŀ": 2045,
      "åĪ»": 2046,
      "éĴŁ": 2047,
      "Ġland": 2048,
      "Ġwould": 2049,
      "çİ©": 2050,
      "å®ŀçİ°": 2051,
      "éĶĢ": 2052,
      "æ°ĳ": 2053,
      "çļĦéĹ®é¢ĺ": 2054,
      "æĺ¾": 2055,
      "Ġfailed": 2056,
      "åįģ": 2057,
      "ä¸Ģç§į": 2058,
      "æĹłæ³ķ": 2059,
      "é¸Ł": 2060,
      "ç§»": 2061,
      "old": 2062,
      "åĪ¶ä½ľ": 2063,
      "50": 2064,
      "å¾·": 2065,
      "Ġgiven": 2066,
      "æĺ¥": 2067,
      "çļĦæĺ¯": 2068,
      "äººçļĦ": 2069,
      "éħĴ": 2070,
      "Ġmem": 2071,
      "ä¿ĿæĮģ": 2072,
      "inal": 2073,
      "ç§ĳåŃ¦": 2074,
      "åĮħåĲ«": 2075,
      "å®ĥçļĦ": 2076,
      "uring": 2077,
      "use": 2078,
      "amp": 2079,
      "é¾": 2080,
      "æ¦Ĥçİĩ": 2081,
      "ob": 2082,
      "åľ°çĲĥ": 2083,
      "Ġpoint": 2084,
      "åıĺåĮĸ": 2085,
      "åĴĸ": 2086,
      "çŁ¥éģĵ": 2087,
      "erm": 2088,
      "å·§": 2089,
      "å°ıçº¢": 2090,
      "èĻĳ": 2091,
      "äºĴ": 2092,
      "æľĢåĲİ": 2093,
      "æĥħæĦŁ": 2094,
      "çĥ¤": 2095,
      "Ġprob": 2096,
      "å¤§çļĦ": 2097,
      "ä¹ĺ": 2098,
      "ä»¤": 2099,
      "è®¢åįķ": 2100,
      "æİ§": 2101,
      "é¢Ĺ": 2102,
      "ords": 2103,
      "ç¼º": 2104,
      "ä»»åĬ¡": 2105,
      "åĳĬè¯īæĪĳ": 2106,
      "å¸Į": 2107,
      "æıĲåıĸ": 2108,
      "é¢ľ": 2109,
      "ecified": 2110,
      "å¾Īå¤ļ": 2111,
      "èµĶä»ĺçİĩ": 2112,
      "Ġif": 2113,
      "dit": 2114,
      "åı°": 2115,
      "åħ´": 2116,
      "yth": 2117,
      "ĠY": 2118,
      "ĠâĢĵ": 2119,
      "Ġstrict": 2120,
      "Ġbu": 2121,
      "çĵ": 2122,
      "ision": 2123,
      "æĢİ": 2124,
      "è¶ħ": 2125,
      "å¾®": 2126,
      "åł": 2127,
      "ç©¿": 2128,
      "åįĹ": 2129,
      "hip": 2130,
      "Ġsec": 2131,
      "çŃĸ": 2132,
      "è¯·éĹ®": 2133,
      "å¥ĩ": 2134,
      "åħ¨çĲĥ": 2135,
      "äº§çĶŁ": 2136,
      "ments": 2137,
      "ç®Ģåįķ": 2138,
      "Ġresult": 2139,
      "åķ¡": 2140,
      "åħ³ç³»": 2141,
      "å¹²": 2142,
      "åĪĩ": 2143,
      "Ġdif": 2144,
      "put": 2145,
      "åĴĸåķ¡": 2146,
      "Ġviolations": 2147,
      "Ġent": 2148,
      "åĿĹ": 2149,
      "update": 2150,
      "Ġrisk": 2151,
      "Ġref": 2152,
      "è¿Ļç§į": 2153,
      "çīĮ": 2154,
      "æłĩé¢ĺ": 2155,
      "Ġretries": 2156,
      "åĬłåħ¥": 2157,
      "Ġcomm": 2158,
      "åķĨåĵģ": 2159,
      "ä¸ľ": 2160,
      "Ġpe": 2161,
      "ç¾İåĽ½": 2162,
      "ä¸¥": 2163,
      ".@": 2164,
      "Ġ@.@": 2165,
      "å¯Į": 2166,
      "its": 2167,
      "å¿ħ": 2168,
      "--": 2169,
      "Ġhand": 2170,
      "Ġsuch": 2171,
      "Ġmeans": 2172,
      "Ġorder": 2173,
      "ollow": 2174,
      "ç»¿": 2175,
      "æĿ¯": 2176,
      "åı¶": 2177,
      "Ġnum": 2178,
      "èĲ¥": 2179,
      "Ġend": 2180,
      "ä¸ĬåįĪ": 2181,
      "Ġagain": 2182,
      "transfer": 2183,
      "Ġmeeting": 2184,
      "ll": 2185,
      "__": 2186,
      "å°Ŀ": 2187,
      "ç»į": 2188,
      "æķ£": 2189,
      "èĵĿ": 2190,
      "åħį": 2191,
      "ä¸ĩ": 2192,
      "ä¸įåĲĮçļĦ": 2193,
      "èº«ä½ĵ": 2194,
      "è¿ĺæľī": 2195,
      "éĻħ": 2196,
      "èī²çļĦ": 2197,
      "Ġact": 2198,
      "æŁĲ": 2199,
      "delete": 2200,
      "å°±æĺ¯": 2201,
      "oup": 2202,
      "ä»ĭç»į": 2203,
      "Ġgen": 2204,
      "invo": 2205,
      "å¸Ī": 2206,
      "éĴ±": 2207,
      "æ¯Ķå¦Ĥ": 2208,
      "äºī": 2209,
      "ç¨ĭåºı": 2210,
      "å¸®æĪĳ": 2211,
      "äº¬": 2212,
      "éļıæľº": 2213,
      "Ġthrough": 2214,
      "éĺ²": 2215,
      "Ġassigned": 2216,
      "éĿĻ": 2217,
      "```": 2218,
      "ç»ĩ": 2219,
      "oint": 2220,
      "ä½ľä¸º": 2221,
      "èľ": 2222,
      "stain": 2223,
      "æ³¨æĦı": 2224,
      "Ġset": 2225,
      "æ¹": 2226,
      "æĹ©": 2227,
      "ĠUn": 2228,
      "Ġlist": 2229,
      "æ²Ļ": 2230,
      "ral": 2231,
      "äºĨè§£": 2232,
      "pr": 2233,
      "Ġsuccessful": 2234,
      "äºļ": 2235,
      "ä¸īä¸ª": 2236,
      "çİĭ": 2237,
      "à¤": 2238,
      "ces": 2239,
      "å·´": 2240,
      "ft": 2241,
      "åºĹ": 2242,
      "å®Ŀ": 2243,
      "ics": 2244,
      "son": 2245,
      "è®¡ç®Ĺæľº": 2246,
      "ä¸ŃåįĪ": 2247,
      "æļĸ": 2248,
      "è¡¨çİ°": 2249,
      "æī¾åĪ°": 2250,
      "é¤Ĳåİħ": 2251,
      "å¯»": 2252,
      "æ£Ģ": 2253,
      "å¼Ĥ": 2254,
      "æ½": 2255,
      "æĸ½": 2256,
      "åħ¸": 2257,
      "åĲĦç§į": 2258,
      "no": 2259,
      "ç§ĳæĬĢ": 2260,
      "hes": 2261,
      "âĢĿãĢĤ": 2262,
      "ç±»åŀĭ": 2263,
      "land": 2264,
      "ä»£çłģ": 2265,
      "Ġcap": 2266,
      "ä¿ĿæĬ¤": 2267,
      "çļĦå¯¹è±¡": 2268,
      "æĦŁåĪ°": 2269,
      "Ġdet": 2270,
      "Ġoff": 2271,
      "Ġlevel": 2272,
      "è°ģ": 2273,
      "Ġrem": 2274,
      "Ġaround": 2275,
      "çĽ¸åĲĮ": 2276,
      "ç¤¾ä¼ļ": 2277,
      "Ġcomple": 2278,
      "å¿µ": 2279,
      "èĪĴ": 2280,
      "Ġ@,": 2281,
      "Ġ@,@": 2282,
      "èĪ¬": 2283,
      "Ġrel": 2284,
      "çļĦæĬ": 2285,
      "æł¸éªĮ": 2286,
      "çīĪ": 2287,
      "å¾ģ": 2288,
      "äºĳ": 2289,
      "Ġassess": 2290,
      "ĠAn": 2291,
      "è¾ĳ": 2292,
      "yes": 2293,
      "ä¸ĵ": 2294,
      "Ġhigher": 2295,
      "Ġ:": 2296,
      "âĢĿï¼Į": 2297,
      "çļĦåľ°": 2298,
      "è¿Ļæ®µ": 2299,
      "ç®±": 2300,
      "Ġthem": 2301,
      "æĻļéĹ´": 2302,
      "Ġche": 2303,
      "Ġrecords": 2304,
      "eth": 2305,
      "æľªæĮĩ": 2306,
      "here": 2307,
      "å¸¦æĿ¥": 2308,
      "å¾Īå¥½": 2309,
      "å°Ĩä»¥ä¸ĭ": 2310,
      "éĺ³æĢ§": 2311,
      "éĥ½æĺ¯": 2312,
      "éĢĢ": 2313,
      "æĸ°éĹ»": 2314,
      "Ġshe": 2315,
      "ä½łåı¯ä»¥": 2316,
      "ĺè¦ģ": 2317,
      "eny": 2318,
      "ä¸įæĺ¯": 2319,
      "ä¸Ģä»½": 2320,
      "Ġappl": 2321,
      "çĲĨè§£": 2322,
      "æĪĳä»¬çļĦ": 2323,
      "Ġaccount": 2324,
      "åĪĨéĴŁ": 2325,
      "åĩłä¸ª": 2326,
      "Ġteam": 2327,
      "å¹¶ä¸Ķ": 2328,
      "æĺ¯ä»Ģä¹Ī": 2329,
      "åĲįç§°": 2330,
      "ython": 2331,
      "æ²»": 2332,
      "å¸ĮæľĽ": 2333,
      "Ġunsp": 2334,
      "orical": 2335,
      "ç«Ļ": 2336,
      "Ġunspecified": 2337,
      "way": 2338,
      "Ġthen": 2339,
      "èĤ²": 2340,
      "ild": 2341,
      "Ġallow": 2342,
      "ä¸ªäºº": 2343,
      "æĭ¥": 2344,
      "Ġfollow": 2345,
      "ãĢĤ\"": 2346,
      "Ġla": 2347,
      "stem": 2348,
      "åĩıå°ĳ": 2349,
      "èĴ": 2350,
      "è®¤ä¸º": 2351,
      "æĤ¨çļĦ": 2352,
      "èİ·å¾Ĺ": 2353,
      "Ġpr": 2354,
      "å®ĮæĪĲ": 2355,
      "è½¯": 2356,
      "ked": 2357,
      "Ġpoor": 2358,
      "Ġcons": 2359,
      "Ġexp": 2360,
      "ced": 2361,
      "su": 2362,
      "æĥħåĨµ": 2363,
      "çŃīçŃī": 2364,
      "ks": 2365,
      "è¿ŀ": 2366,
      "Ġkn": 2367,
      "çĶ³": 2368,
      "çļĦç¾": 2369,
      "åĳĪ": 2370,
      "è¿Ļæł·": 2371,
      "è®°å½ķ": 2372,
      "éŃ": 2373,
      "æĹ¥æľŁ": 2374,
      "åħ»": 2375,
      "åĶ®": 2376,
      "Ġatt": 2377,
      "è¯¢": 2378,
      "éĨ": 2379,
      "Ġem": 2380,
      "ited": 2381,
      "å½ĵåīį": 2382,
      "æ¿": 2383,
      "ool": 2384,
      "æłĩåĩĨ": 2385,
      "æľĢè¿ĳ": 2386,
      "æĿİ": 2387,
      "ading": 2388,
      "ç¥¨": 2389,
      "éĻį": 2390,
      "å¾Ģ": 2391,
      "æĬĺ": 2392,
      "Ġhim": 2393,
      "é¢ľèī²": 2394,
      "å½©": 2395,
      "æ¤į": 2396,
      "é£Łçī©": 2397,
      "ating": 2398,
      "aly": 2399,
      "åĨ°": 2400,
      "å®¤": 2401,
      "è´Ńä¹°": 2402,
      "æ¸¸æĪı": 2403,
      "ons": 2404,
      "xt": 2405,
      "åį¡": 2406,
      "ection": 2407,
      "è¿ĺæĺ¯": 2408,
      "oh": 2409,
      "ä»»ä½ķ": 2410,
      "è¯Ħå®¡": 2411,
      "å¯¼èĩ´": 2412,
      "Ġapplies": 2413,
      "å±Ĥ": 2414,
      "åĬ¿": 2415,
      "çĶŁåĳ½": 2416,
      "è´Ł": 2417,
      "ä¸ĬçļĦ": 2418,
      "è¿Ļåı¥è¯Ŀ": 2419,
      "é²ľ": 2420,
      "gr": 2421,
      "Ġprov": 2422,
      "Ġyears": 2423,
      "ï¼īãĢĤ": 2424,
      "Ġadj": 2425,
      "é¼": 2426,
      "Ġeach": 2427,
      "ç®Ĺæ³ķ": 2428,
      "14": 2429,
      "éĶĻè¯¯": 2430,
      "ata": 2431,
      "25": 2432,
      "Ġdef": 2433,
      "ecution": 2434,
      "æľ¨": 2435,
      "åĩºçİ°": 2436,
      "çļ®": 2437,
      "èµ·æĿ¥": 2438,
      "Ġpositive": 2439,
      "å®ļçļĦ": 2440,
      "åĵªäºĽ": 2441,
      "ä¸įèĥ½": 2442,
      "ox": 2443,
      "è´¢": 2444,
      "åĲ§": 2445,
      "ings": 2446,
      "Ġmost": 2447,
      "çıŃ": 2448,
      "Ġthree": 2449,
      "éĺħ": 2450,
      "Ġnever": 2451,
      "æŃ£åľ¨": 2452,
      "åĩ½": 2453,
      "èĢĥèĻĳ": 2454,
      "Ġdiffer": 2455,
      "ug": 2456,
      "ä¹ĭéĹ´çļĦ": 2457,
      "åİĭ": 2458,
      "åŃ¦çĶŁ": 2459,
      "bjects": 2460,
      "Ġcar": 2461,
      "reat": 2462,
      "ç»Ħç»ĩ": 2463,
      "èµĦæºĲ": 2464,
      "100": 2465,
      "22": 2466,
      "åī§": 2467,
      "Ġimp": 2468,
      "ices": 2469,
      "Ġchar": 2470,
      "éĿĴ": 2471,
      "åī©ä¸ĭ": 2472,
      "åĬŁèĥ½": 2473,
      "ä¸įæĸŃ": 2474,
      "çĽ¸ç¬¦": 2475,
      "çļĦç¾İ": 2476,
      "à¸": 2477,
      "Ġcall": 2478,
      "ived": 2479,
      "Ġeff": 2480,
      "ower": 2481,
      "å¸Ĥåľº": 2482,
      "16": 2483,
      "Ġagainst": 2484,
      "å¦Ĥæŀľä½ł": 2485,
      "Ġmembers": 2486,
      "è®¨": 2487,
      "å¢ŀåĬł": 2488,
      "ç§¯æŀģ": 2489,
      "Ġbel": 2490,
      "ç»ľ": 2491,
      "çĳ": 2492,
      "æ³¢": 2493,
      "æĶ¿": 2494,
      "åĩ½æķ°": 2495,
      "æĢİä¹Ī": 2496,
      "ester": 2497,
      "è¯¥çĶ¨æĪ·": 2498,
      "åĸĦ": 2499,
      "illing": 2500,
      "æ¯Ķè¾ĥ": 2501,
      "Ġè¾ĥ": 2502,
      "ending": 2503,
      "Objects": 2504,
      "äºĨä¸Ģä¸ª": 2505,
      "åģĩ": 2506,
      "è¯¥çĶ¨æĪ·åı¯": 2507,
      "Ġsystem": 2508,
      "è¡¥": 2509,
      "è¡Įä¸º": 2510,
      "è´¥": 2511,
      "Ġco": 2512,
      "æĤ¨åı¯ä»¥": 2513,
      "ç¡®å®ļ": 2514,
      "ph": 2515,
      "åĪĽå»º": 2516,
      "Ġrele": 2517,
      "è¿Ļç¬Ķ": 2518,
      "çļĦæ¯": 2519,
      "èŀ": 2520,
      "Ġtakes": 2521,
      "é£İæł¼": 2522,
      "åĪĹåĩº": 2523,
      "Ġunder": 2524,
      "ders": 2525,
      "app": 2526,
      "æ®µèĲ½": 2527,
      "é¡»": 2528,
      "æ¿Ģ": 2529,
      "åºŃ": 2530,
      "arget": 2531,
      "è¯ĨåĪ«": 2532,
      "äº®": 2533,
      "Ġstandard": 2534,
      "Ġwhile": 2535,
      "çŁ³": 2536,
      "è¯ĹæŃĮ": 2537,
      "æ¥": 2538,
      "Ġver": 2539,
      "ä¸¾": 2540,
      "æĹħæ¸¸": 2541,
      "ines": 2542,
      "Ġ/": 2543,
      "é«ĺçļĦ": 2544,
      "å±ŀäºİ": 2545,
      "è·ĳ": 2546,
      "Ġ$": 2547,
      "Ġbeing": 2548,
      "uct": 2549,
      "Ġwell": 2550,
      "çļĦä¿¡æģ¯": 2551,
      "åĵªä¸ªæĵįä½ľ": 2552,
      "ç§Ł": 2553,
      "Ġæ¬¡": 2554,
      "ç²ī": 2555,
      "ĠĠĠĠ": 2556,
      "Ġx": 2557,
      "ivid": 2558,
      "è¿Ļæĺ¯": 2559,
      "side": 2560,
      "æĽ´å¥½": 2561,
      "Ġod": 2562,
      "ä¼Ĺ": 2563,
      "é¦Ĩ": 2564,
      "å°Ĩåħ¶": 2565,
      "ä¸Ģé¦ĸ": 2566,
      "pport": 2567,
      "æľºåĻ¨åŃ¦ä¹ł": 2568,
      "Ġdist": 2569,
      "ĠæĿ¡": 2570,
      "Ġsa": 2571,
      "Ġgame": 2572,
      "éĥ¨åĪĨ": 2573,
      "å®½": 2574,
      "24": 2575,
      "ular": 2576,
      "Ġcor": 2577,
      "ä¹Łåı¯ä»¥": 2578,
      "ents": 2579,
      "Ġten": 2580,
      "åĤ": 2581,
      "è¯¦": 2582,
      "æ¼«": 2583,
      "æĹħè¡Į": 2584,
      "æ´ģ": 2585,
      "Ġrecord": 2586,
      "åĪ©çĶ¨": 2587,
      "è¿Ļç¯ĩ": 2588,
      "æĿĲæĸĻ": 2589,
      "åºĶå½ĵ": 2590,
      "Ex": 2591,
      "ç»Ŀ": 2592,
      "ĠThis": 2593,
      "èīºæľ¯": 2594,
      "æĮīçħ§": 2595,
      "Ġhel": 2596,
      "åĽ¢éĺŁ": 2597,
      "ç¦ı": 2598,
      "å°Ŀè¯ķ": 2599,
      "ok": 2600,
      "oss": 2601,
      "éĵħ": 2602,
      "éģ¿": 2603,
      "è¿½": 2604,
      "åĨ³å®ļ": 2605,
      "21": 2606,
      "æ´ĭ": 2607,
      "ĠEn": 2608,
      "ç¬ĳ": 2609,
      "è®¡åĪĴ": 2610,
      "èĪĴéĢĤ": 2611,
      "Ġserv": 2612,
      "åĵģçīĮ": 2613,
      "Ġmod": 2614,
      "Ġbl": 2615,
      "olog": 2616,
      "çļĦæĦı": 2617,
      "Ġsome": 2618,
      "Ġcol": 2619,
      "éľĢæ±Ĥ": 2620,
      "éĢģ": 2621,
      "çļĦå½±åĵį": 2622,
      "rop": 2623,
      "å±ħ": 2624,
      "Ġåħ±": 2625,
      "æ³Ľ": 2626,
      "invoice": 2627,
      "ç®¡çĲĨ": 2628,
      "æĭ¥æľī": 2629,
      "åı¯çĶ¨": 2630,
      "AI": 2631,
      "è¯ĦåĪĨ": 2632,
      "éĩĩçĶ¨": 2633,
      "æĸĩæľ¬ä¸Ń": 2634,
      "ividual": 2635,
      "Ġratio": 2636,
      "ä¹Łæĺ¯": 2637,
      "ç½ĳç»ľ": 2638,
      "velop": 2639,
      "å°¼": 2640,
      "èĶ": 2641,
      "èĲ½åľ¨": 2642,
      "éĵħç¬Ķ": 2643,
      "Ġ34": 2644,
      "fore": 2645,
      "ä¼ļè¢«": 2646,
      "ä½ľçĶ¨": 2647,
      "é¡º": 2648,
      "ve": 2649,
      "ç¼ĸåĨĻ": 2650,
      "Ġgroup": 2651,
      "æµª": 2652,
      "Ġhistory": 2653,
      "åıĳçĶŁ": 2654,
      "iel": 2655,
      "Ġindividual": 2656,
      "Ġodds": 2657,
      "ä¸ªèĭ¹æŀľ": 2658,
      "ç½Ĺ": 2659,
      "Ġmust": 2660,
      "æľīè¶£": 2661,
      "ç¡®ä¿Ŀ": 2662,
      "éĻ¤ä»¥": 2663,
      "Ġrefund": 2664,
      "sc": 2665,
      "è¿Ŀ": 2666,
      "ople": 2667,
      "è®Ń": 2668,
      "ix": 2669,
      "éĥ¨éĹ¨": 2670,
      "Ġprobability": 2671,
      "å³": 2672,
      "ohn": 2673,
      "åĮ»çĸĹ": 2674,
      "çļĦæ²": 2675,
      "å²ģ": 2676,
      "çİ°ä»£": 2677,
      "Ġvery": 2678,
      "éŀ": 2679,
      "att": 2680,
      "ric": 2681,
      "ired": 2682,
      "Ġmade": 2683,
      "Ġback": 2684,
      "éĺ³åħī": 2685,
      "Ġreg": 2686,
      "60": 2687,
      "æĦŁåıĹ": 2688,
      "Ġmon": 2689,
      "æĳĺè¦ģ": 2690,
      "èĥľç®Ĺ": 2691,
      "ities": 2692,
      "ures": 2693,
      "æł¡": 2694,
      "èĩªåĬ¨": 2695,
      "ise": 2696,
      "èĭ¥": 2697,
      "Ġbr": 2698,
      "äº²": 2699,
      "Ġreport": 2700,
      "çĶ±äºİ": 2701,
      "åĪ¤å®ļ": 2702,
      "åľ¨è¿Ļä¸ª": 2703,
      "æĪĳåı¯ä»¥": 2704,
      "ä¸ºæĤ¨": 2705,
      "ä½ĵéªĮ": 2706,
      "Ġhelp": 2707,
      "Ġinv": 2708,
      "æİ§åĪ¶": 2709,
      "ä½ľèĢħ": 2710,
      "ç¾İä¸½": 2711,
      "ĠAl": 2712,
      "ŁçļĦ": 2713,
      "Ġcheck": 2714,
      "çķĻ": 2715,
      "ticket": 2716,
      "æ¢¦": 2717,
      "æ©Ļ": 2718,
      "çļĦæİ": 2719,
      "çķ¥": 2720,
      "ä½ľåĵģ": 2721,
      "æĹ¶åĢĻ": 2722,
      "äº«åıĹ": 2723,
      "æķı": 2724,
      "als": 2725,
      "åĮĢ": 2726,
      "ten": 2727,
      "team": 2728,
      "èĮĥ": 2729,
      "user": 2730,
      "ript": 2731,
      "è¯¦ç»Ĩ": 2732,
      ".\"": 2733,
      "å®³": 2734,
      "Ġtake": 2735,
      "Ġorders": 2736,
      "å®¡æł¸": 2737,
      "æ¯ĶèµĽ": 2738,
      "èĥĮ": 2739,
      "éĤ®": 2740,
      "çĶŁçī©": 2741,
      "çļĦæµ": 2742,
      "æ¬¡æķ°": 2743,
      "Ġlen": 2744,
      "Ġ60": 2745,
      "artment": 2746,
      "åŃĹæ¯į": 2747,
      "Ġmin": 2748,
      "ĠOn": 2749,
      "Ġgood": 2750,
      "Ġreturn": 2751,
      "ãģ": 2752,
      "è¯¥è¯·æ±Ĥ": 2753,
      "æľīåħ³": 2754,
      "ting": 2755,
      "ife": 2756,
      "Ġyour": 2757,
      "åį°": 2758,
      "åº§": 2759,
      "åħĥç´ł": 2760,
      "æ»©": 2761,
      "åģľ": 2762,
      "aining": 2763,
      "èŀį": 2764,
      "Ġthere": 2765,
      "Ġsame": 2766,
      "æµİ": 2767,
      "åºķ": 2768,
      "è¿İ": 2769,
      "Ġpoints": 2770,
      "è¿Ļæ¬¡": 2771,
      "åħ¬åĽŃ": 2772,
      "å®¶åºŃ": 2773,
      "Ġcent": 2774,
      "èĭ±è¯Ń": 2775,
      "åı¯èĥ½ä¼ļ": 2776,
      "æīįèĥ½": 2777,
      "åľŁ": 2778,
      "Ġuse": 2779,
      "ä½įç½®": 2780,
      "èģĮ": 2781,
      "èĳĹåĲį": 2782,
      "çļĦæĿĥéĩį": 2783,
      "red": 2784,
      "åĩĨå¤ĩ": 2785,
      "çī¹å¾ģ": 2786,
      "Ġvo": 2787,
      "ç»ĵæŀĦ": 2788,
      "éŀĭ": 2789,
      "åįĥ": 2790,
      "èĪŀ": 2791,
      "yp": 2792,
      "ily": 2793,
      "çļĦæĻ": 2794,
      "è¯·ä½ł": 2795,
      "èĦĳ": 2796,
      "ĠæĮī": 2797,
      "å°ļ": 2798,
      "ĠAr": 2799,
      "çļĦåı¥åŃĲ": 2800,
      "alance": 2801,
      "åģı": 2802,
      "ational": 2803,
      "åħħæ»¡": 2804,
      "æĲŃ": 2805,
      "ork": 2806,
      "led": 2807,
      "å¹¿æ³Ľ": 2808,
      "Ġbro": 2809,
      "æĩ": 2810,
      "Ġcould": 2811,
      "çĶµåŃĲ": 2812,
      "äºĭä»¶": 2813,
      "é£İéĻ©åĪĨ": 2814,
      "æ°´æŀľ": 2815,
      "arg": 2816,
      "Ġform": 2817,
      "çļĦæ¸": 2818,
      "å°ıæĺİæľī": 2819,
      "Ġspec": 2820,
      "Ġhow": 2821,
      "Ġbas": 2822,
      "ä½ı": 2823,
      "Ġattendee": 2824,
      "Ġac": 2825,
      "Ã©": 2826,
      "æĿĤ": 2827,
      "ling": 2828,
      "éª¤": 2829,
      "Requ": 2830,
      "ilm": 2831,
      "Ġ80": 2832,
      "Ġexc": 2833,
      "ification": 2834,
      "èī¯": 2835,
      "Ġduring": 2836,
      "Ġear": 2837,
      "å¤±è´¥": 2838,
      "æľīä¸Ģä¸ª": 2839,
      "éĺħè¯»": 2840,
      "ted": 2841,
      "Ġmatching": 2842,
      "æ²³": 2843,
      "åľĨ": 2844,
      "å®ĥä»¬çļĦ": 2845,
      "40": 2846,
      "å¦ĤæŀľæĤ¨": 2847,
      "åĮĹäº¬": 2848,
      "ç¬¬äºĮ": 2849,
      "æĮīåĮºæ®µ": 2850,
      "ĠçļĦåı¯çĶ¨": 2851,
      "ĠæĮīæĹ¥": 2852,
      "ĠçļĦåı¯çĶ¨æĿĥéĩį": 2853,
      "ä¸ºäºĨ": 2854,
      "ss": 2855,
      "ĳæĪĺ": 2856,
      "æ±½": 2857,
      "è¿¹": 2858,
      "ious": 2859,
      "ä»¥ä¸ĭæĺ¯ä¸Ģ": 2860,
      "ãĢĤ-": 2861,
      "çģµ": 2862,
      "è¯Ħè®º": 2863,
      "åįĬ": 2864,
      "éģĩ": 2865,
      "çľ¼": 2866,
      "ç§ĺ": 2867,
      "ï¼ļ-": 2868,
      "ized": 2869,
      "ath": 2870,
      "æŃ¥éª¤": 2871,
      "ä¸ºä»Ģä¹Ī": 2872,
      "Ġpol": 2873,
      "è±Ĩ": 2874,
      "Ġ41": 2875,
      "æ·»": 2876,
      "ute": 2877,
      "åĵªä¸Ģ": 2878,
      "åĩĨç¡®": 2879,
      "Review": 2880,
      "80": 2881,
      "Ġlikely": 2882,
      "éĺ¿": 2883,
      "ason": 2884,
      "å·ŀ": 2885,
      "Ġlike": 2886,
      "è¿Ļä¸ªéĹ®é¢ĺ": 2887,
      "Ġvalue": 2888,
      "Ġtier": 2889,
      "any": 2890,
      "Ġbook": 2891,
      "ç»ıæµİ": 2892,
      "åĲįåŃĹ": 2893,
      "æľªæĮĩæĺİ": 2894,
      "rel": 2895,
      "æł¹æį®ç»Ļå®ļçļĦ": 2896,
      "éħ±": 2897,
      "Ġgu": 2898,
      "ä»¥ä¸ĭæĺ¯": 2899,
      "ä¸Ģåıª": 2900,
      "è¯´æĺİ": 2901,
      "æħ¢": 2902,
      "èĮ¶": 2903,
      "Ġtarget": 2904,
      "Ġwhere": 2905,
      "Ġpeople": 2906,
      "arch": 2907,
      "èĲ¨": 2908,
      "ever": 2909,
      "Ġproduct": 2910,
      "èģĶåĲĪ": 2911,
      "ä¼ģ": 2912,
      "å¦Ĥä¸ĭ": 2913,
      "ï¼īï¼Į": 2914,
      "æ°ĶåĢĻ": 2915,
      "ä¸°": 2916,
      "äº¤éĢļ": 2917,
      "ä¸¥æł¼": 2918,
      "Ġqualif": 2919,
      "Ġph": 2920,
      "ä¸ĭæĿ¥": 2921,
      "éĢĢæ¬¾": 2922,
      "ĠåĪĨ": 2923,
      "Ġfun": 2924,
      "çŃīäºİ": 2925,
      "æīĭæľº": 2926,
      "Ġart": 2927,
      "ç¬¬ä¸Ģ": 2928,
      "ames": 2929,
      "ron": 2930,
      "lection": 2931,
      "Ġstud": 2932,
      "æľ¬ä¹¦": 2933,
      "Ġorgan": 2934,
      "ä¸Ģåħ±": 2935,
      "è¯Ħä»·": 2936,
      "æĽ´å¥½åľ°": 2937,
      "çªģ": 2938,
      "ident": 2939,
      "å©": 2940,
      "åŃĹç¬¦": 2941,
      "æŁĵ": 2942,
      "åª": 2943,
      "æ¯Ľ": 2944,
      "90": 2945,
      "éģ¿åħį": 2946,
      "éªĮèĥľç®Ĺ": 2947,
      "éĻĦ": 2948,
      "é¢Ħæµĭ": 2949,
      "éĻ¢": 2950,
      "åıĮ": 2951,
      "èª": 2952,
      "æ¤įçī©": 2953,
      "Ġ75": 2954,
      "æĶ¯æĮģ": 2955,
      "Ġsub": 2956,
      "ock": 2957,
      "ç¬¦åĲĪ": 2958,
      "éĺ´": 2959,
      "Ġdevelop": 2960,
      "Ġsm": 2961,
      "..": 2962,
      "è¯Ħå®ļ": 2963,
      "é¹": 2964,
      "æĢ§åĴĮ": 2965,
      "Ġsur": 2966,
      "è¯Ńæ³ķ": 2967,
      "åĿĩåĮĢ": 2968,
      "å¤§åĪ©": 2969,
      "Ġmake": 2970,
      "åĵĪ": 2971,
      "Ġsong": 2972,
      "èĸ": 2973,
      "ä¼ĳ": 2974,
      "Ġhistorical": 2975,
      "çĩ": 2976,
      "åŁºäºİ": 2977,
      "Ġwrit": 2978,
      "æ¸Ĳ": 2979,
      "ä¹īè¯į": 2980,
      "Ġ30": 2981,
      "Ġdid": 2982,
      "Ġsing": 2983,
      "æĥ³è¦ģ": 2984,
      "å®¢æĪ·": 2985,
      "çļĦæĥħæĦŁ": 2986,
      "æĻ®": 2987,
      "crib": 2988,
      "æ´²": 2989,
      "åĨĻä¸Ģç¯ĩ": 2990,
      "Ġneed": 2991,
      "éĴĪ": 2992,
      "éĶĢåĶ®": 2993,
      "eb": 2994,
      "ause": 2995,
      "ä»£è¡¨": 2996,
      "Ġdepartment": 2997,
      "å½¢å¼ı": 2998,
      "ä»·åĢ¼": 2999,
      "åĨ·": 3000,
      "æŃĮæĽ²": 3001,
      "æĹłåħ³": 3002,
      "alse": 3003,
      "éĢīçĶ¨": 3004,
      "order": 3005,
      "ä»ĸä»¬çļĦ": 3006,
      "çĶ³è¯·": 3007,
      "ef": 3008,
      "Ġtrans": 3009,
      "çļĦæĥħåĨµ": 3010,
      "è®©äºº": 3011,
      "ward": 3012,
      "å¤ıå¤©": 3013,
      "è·Ŀ": 3014,
      "æ¯ıå¤©": 3015,
      "åĩĢ": 3016,
      "éĵ¶": 3017,
      "æĪĳä»¬éľĢè¦ģ": 3018,
      "éĩįè¦ģçļĦ": 3019,
      "ä¸ªç³ĸæŀľ": 3020,
      "meric": 3021,
      "Ġpan": 3022,
      "è·³": 3023,
      "æĿ¥è¯´": 3024,
      "Ġ[": 3025,
      "è®Ńç»ĥ": 3026,
      "Python": 3027,
      "ĠNew": 3028,
      "ç«¯": 3029,
      "åį³åı¯": 3030,
      "Ġ70": 3031,
      "ç§ŁæĪ·": 3032,
      "çļĦå·¥åħ·": 3033,
      "Ġjud": 3034,
      "çļĦæĸĩç«ł": 3035,
      "pro": 3036,
      "ä¼łç»Ł": 3037,
      "åĿļ": 3038,
      "æĢ»ç»ĵ": 3039,
      "Ġsent": 3040,
      "Ġ67": 3041,
      "Ġhigh": 3042,
      "Ġ90": 3043,
      "èĶ¬": 3044,
      "åĩ»": 3045,
      "dom": 3046,
      "ature": 3047,
      "è°ĥçĶ¨": 3048,
      "çİĩä¸º": 3049,
      "Ġmain": 3050,
      "ization": 3051,
      "Ġname": 3052,
      "åĳ¼": 3053,
      "ä¼¤": 3054,
      "çŃĳ": 3055,
      "ĠCom": 3056,
      "éĩİ": 3057,
      "ax": 3058,
      "å¿Ĺ": 3059,
      "Ġacc": 3060,
      "ayment": 3061,
      "related": 3062,
      "æĿ¡æ¬¾": 3063,
      "Ġworld": 3064,
      "gent": 3065,
      "allow": 3066,
      "Ġbefore": 3067,
      "ode": 3068,
      "åĨ¬": 3069,
      "èĹ": 3070,
      "çĽĬ": 3071,
      "éĿ¢ç§¯": 3072,
      "row": 3073,
      "èŃ": 3074,
      "æī¹åĩĨ": 3075,
      "å¹»": 3076,
      "ton": 3077,
      "Ġaut": 3078,
      "ered": 3079,
      "æĿ¡ä»¶": 3080,
      "åĪĿ": 3081,
      "çļĦæĵ": 3082,
      "ĠWhen": 3083,
      "Ġway": 3084,
      "ä¹ĭåīį": 3085,
      "çĶľ": 3086,
      "ference": 3087,
      "å¸ģ": 3088,
      "çļĦçŁ": 3089,
      "Ġfall": 3090,
      "Ġfilm": 3091,
      "æĢĿèĢĥ": 3092,
      "æİĴåºı": 3093,
      "Ġdiv": 3094,
      "Ġshif": 3095,
      "Ġfollowing": 3096,
      "23": 3097,
      "æŁĶ": 3098,
      "Ġ24": 3099,
      "åıĺå¾Ĺ": 3100,
      "ĠÂ": 3101,
      "åľºæĻ¯": 3102,
      "Ġown": 3103,
      "orth": 3104,
      "Ġnumber": 3105,
      "Ġrece": 3106,
      "ç¼ĸè¾ĳ": 3107,
      "ested": 3108,
      "Ġlater": 3109,
      "ember": 3110,
      "ĠUS": 3111,
      "Ġser": 3112,
      "è¿Ŀè§Ħ": 3113,
      "æĬķ": 3114,
      "çļĦä¸ĢæĿ¡": 3115,
      "ĠAmeric": 3116,
      "çļĦæĵįä½ľ": 3117,
      "Ġdisp": 3118,
      "Ġunrelated": 3119,
      "åį´": 3120,
      "ä½³": 3121,
      "ustom": 3122,
      "é¥Ń": 3123,
      "ource": 3124,
      "åı«": 3125,
      "28": 3126,
      "cess": 3127,
      "ç´§": 3128,
      "æ´¾": 3129,
      "Ġinvo": 3130,
      "æ¸ħåįķ": 3131,
      "ars": 3132,
      "Ġloc": 3133,
      "chn": 3134,
      "åĬŀ": 3135,
      "èį¯": 3136,
      "éĢīé¡¹": 3137,
      "andom": 3138,
      "Ġdata": 3139,
      "è´¨éĩıåĪĨ": 3140,
      "tern": 3141,
      "Ġany": 3142,
      "Ġget": 3143,
      "å»ºçŃĳ": 3144,
      "å°ıæĹ¶": 3145,
      "Ġleg": 3146,
      "è®©æĪĳ": 3147,
      "ä¸ĢæŃ¥": 3148,
      "Ġcase": 3149,
      "éĩįè¯ķ": 3150,
      "Ġcharact": 3151,
      "Ġtenant": 3152,
      "æĪĲåĬŁæŃ¥æķ°": 3153,
      "å¤±è´¥æŃ¥æķ°": 3154,
      "æ´Ĺ": 3155,
      "ä½¿åħ¶": 3156,
      "Ġpub": 3157,
      "ards": 3158,
      "Ġjoint": 3159,
      "ä¸²": 3160,
      "çĪ±æĥħ": 3161,
      "eral": 3162,
      "tain": 3163,
      "az": 3164,
      "çľĭåĪ°": 3165,
      "Ġresp": 3166,
      "Gr": 3167,
      "elf": 3168,
      "ç¾¤": 3169,
      "èĩªçĶ±": 3170,
      "é¢ĳ": 3171,
      "ible": 3172,
      "ank": 3173,
      "Ġ65": 3174,
      "è¿ĺåı¯ä»¥": 3175,
      "èĻ½": 3176,
      "æĺ¯æĮĩ": 3177,
      "å°Ħ": 3178,
      "åĽ°": 3179,
      "ä¸Ńå¿ĥ": 3180,
      "éĢı": 3181,
      "æµ®": 3182,
      "Ġ55": 3183,
      "ä»İèĢĮ": 3184,
      "èĥ½åĲ¦": 3185,
      "åľ¨è¯¥": 3186,
      "éĢŁåº¦": 3187,
      "çī¹çĤ¹": 3188,
      "èĶ¬èıľ": 3189,
      "éĵģ": 3190,
      "Ġ23": 3191,
      "ç»ıåħ¸": 3192,
      "Ġmany": 3193,
      "çļĦæķħäºĭ": 3194,
      "ĠĠĠ": 3195,
      "ä¸Ģç»Ħ": 3196,
      "çļĦåİĨåı²": 3197,
      "iet": 3198,
      "å¯»æī¾": 3199,
      "çīĻ": 3200,
      "çļĦä¸Ģä¸ª": 3201,
      "Ġpanel": 3202,
      "æĹ§": 3203,
      "éķ¿åº¦": 3204,
      "å½ĵçĦ¶åı¯ä»¥": 3205,
      "åĢĴ": 3206,
      "çļĦæĦŁ": 3207,
      "åĪĽéĢł": 3208,
      "Ġlanding": 3209,
      "è¡ĮæĺŁ": 3210,
      "æĽ¿": 3211,
      "è½¨": 3212,
      "åĿĲ": 3213,
      "Ġneg": 3214,
      "æĿ¿": 3215,
      "æŃ£ç¡®çļĦ": 3216,
      "æİ¢ç´¢": 3217,
      "å½ĵåīįçĬ¶æĢģä¸º": 3218,
      "Ġ64": 3219,
      "å¤ĩæ³¨": 3220,
      "positive": 3221,
      "è£¤": 3222,
      "outh": 3223,
      "ĠAd": 3224,
      "Ġjudge": 3225,
      "Ġlong": 3226,
      "éĢĲ": 3227,
      "Ġ56": 3228,
      "èķ": 3229,
      "çĽĸ": 3230,
      "ane": 3231,
      "æĺ¯å¤ļå°ĳ": 3232,
      "çļĦæ£": 3233,
      "ished": 3234,
      "Ġapproved": 3235,
      "åį«": 3236,
      "acent": 3237,
      "æł¹æį®ä»¥ä¸ĭ": 3238,
      "Ġmus": 3239,
      "ä¸įä»ħ": 3240,
      "Ġpres": 3241,
      "air": 3242,
      "aced": 3243,
      "åİŁåĽł": 3244,
      "Ġfour": 3245,
      "Ġpending": 3246,
      "æ°§": 3247,
      "æľ¬æ¬¡": 3248,
      "Ġ94": 3249,
      "çī©åĵģ": 3250,
      "åĪ¤æĸŃ": 3251,
      "è®²è¿°": 3252,
      "Ġ77": 3253,
      "Ġapproval": 3254,
      "Ġmy": 3255,
      "Ġ76": 3256,
      "çļĦæĸĩæľ¬": 3257,
      "çĦ¶æ¯Ķ": 3258,
      "Ġadjacent": 3259,
      "æĸĩåŃĹ": 3260,
      "æ±½è½¦": 3261,
      "cl": 3262,
      "Ġ88": 3263,
      "this": 3264,
      "é¾Ļ": 3265,
      "Ġnight": 3266,
      "ä¼¼çĦ¶æ¯Ķ": 3267,
      "ience": 3268,
      "Ġ85": 3269,
      "è¿ĻéĩĮ": 3270,
      "ior": 3271,
      "çļĦçĶµå½±": 3272,
      "illed": 3273,
      "Ġ68": 3274,
      "Ġ89": 3275,
      "éĥ¨çĶµå½±": 3276,
      "éĽª": 3277,
      "çĽ®æłĩå¯¹è±¡": 3278,
      "ethod": 3279,
      "deny": 3280,
      "Ġ62": 3281,
      "abstain": 3282,
      "æĭ¿": 3283,
      "aj": 3284,
      "å¥Ĺ": 3285,
      "æĥĬ": 3286,
      "Ġ69": 3287,
      "ched": 3288,
      "Ġ78": 3289,
      "ç³ķ": 3290,
      "è¡¥æķ°": 3291,
      "ize": 3292,
      "éħ¸": 3293,
      "Ġaccess": 3294,
      "ural": 3295,
      "è®¡è´¹": 3296,
      "Ġ86": 3297,
      "Ġ72": 3298,
      "man": 3299,
      "ĠDe": 3300,
      "èĩªçĦ¶è¯Ńè¨Ģ": 3301,
      "çŃĶæ¡Īæĺ¯": 3302,
      "Ġqualifies": 3303,
      "à®": 3304,
      "åĬ¨ä½ľä¸İ": 3305,
      "çº³": 3306,
      "åħ°": 3307,
      "ä¼¦": 3308,
      "åĬ¨ä½ľçĽ¸ç¬¦": 3309,
      "æľªæĮĩæĺİå¯¹è±¡": 3310,
      "åĬ¨ä½ľçĽ¸ç¬¦çļĦå·¥åħ·": 3311,
      "uates": 3312,
      "åĽłç´ł": 3313,
      "Ġvoided": 3314,
      "Ġposit": 3315,
      "ç¤¼": 3316,
      "Ġest": 3317,
      "Ġ66": 3318,
      "æİ¥åı£": 3319,
      "Ġintern": 3320,
      "æķ´ä¸ª": 3321,
      "Ġ58": 3322,
      "Ġshifts": 3323,
      "æŃ¢": 3324,
      "è¯¯æĬ¥": 3325,
      "gy": 3326,
      "Ġcustom": 3327,
      "Ġfluct": 3328,
      "åĵªä¸ªæĹ¶æ®µ": 3329,
      "çīĽå¥¶": 3330,
      "æķĻèĤ²": 3331,
      "ä¸°å¯Į": 3332,
      "Ġinside": 3333,
      "Ġ79": 3334,
      "æ¸©åº¦": 3335,
      "Ġjudgement": 3336,
      "åĨĽ": 3337,
      "æ±ĩ": 3338,
      "æĢ§çļĦ": 3339,
      "åĬĽåĴĮ": 3340,
      "çİ¯ä¿Ŀ": 3341,
      "åŃ©åŃĲ": 3342,
      "ä¸įä¼ļ": 3343,
      "Ġthreshold": 3344,
      "æĹ¶å°ļ": 3345,
      "Agent": 3346,
      "Ġ57": 3347,
      "Ġdr": 3348,
      "å®ĩ": 3349,
      "çļĦå¤©æ°Ķ": 3350,
      "åĳĪéĺ³æĢ§": 3351,
      "éĶħ": 3352,
      "ä½ľåº": 3353,
      "ler": 3354,
      "aking": 3355,
      "Ġlenient": 3356,
      "ract": 3357,
      "è´Ńçī©": 3358,
      "Ġfluctuates": 3359,
      "ots": 3360,
      "Ġincre": 3361,
      "åĪĽä½ľ": 3362,
      "Execution": 3363,
      "Grading": 3364,
      "Ġpri": 3365,
      "Ġ73": 3366,
      "çŁŃè¯Ń": 3367,
      "çļĦå°ı": 3368,
      "Ġ63": 3369,
      "Ġ74": 3370,
      "å¨ģ": 3371,
      "29": 3372,
      "çļĦåıĳå±ķ": 3373,
      "è·Ŀç¦»": 3374,
      "áŀ": 3375,
      "æĮģç»Ń": 3376,
      "èĿ": 3377,
      "ale": 3378,
      "æľīä¸Ģ": 3379,
      "Ġ83": 3380,
      "é£Łåĵģ": 3381,
      "æ·»åĬł": 3382,
      "com": 3383,
      "éļıçĿĢ": 3384,
      "Ġagent": 3385,
      "stru": 3386,
      "Ġåľ¨": 3387,
      "èĻ½çĦ¶": 3388,
      "è¿Ļæĺ¯ä¸Ģä¸ª": 3389,
      "åħ³æ³¨": 3390,
      "27": 3391,
      "å³°": 3392,
      "åĲ¸å¼ķ": 3393,
      "è¿Ļæĺ¯ä¸Ģ": 3394,
      "Ġ199": 3395,
      "icy": 3396,
      "é¥°": 3397,
      "å½¢æĪĲ": 3398,
      "æĸ¹æ¡Ī": 3399,
      "Ġ87": 3400,
      "æĭŁ": 3401,
      "è¡¨æĺİ": 3402,
      "èĦļ": 3403,
      "Ġ84": 3404,
      "å¼Ģåıĳ": 3405,
      "Ġ96": 3406,
      "Ġ95": 3407,
      "é¸¡èĽĭ": 3408,
      "çĽĺ": 3409,
      "Ġfound": 3410,
      "æĺ¯åľ¨": 3411,
      "è¿Ļç¯ĩæĸĩç«ł": 3412,
      "Ġop": 3413,
      "çĸĳ": 3414,
      "è®¾å¤ĩ": 3415,
      "Ġdisc": 3416,
      "Ġchange": 3417,
      "Ġ59": 3418,
      "éĩįå¤į": 3419,
      "å¼ĥ": 3420,
      "å¯¹è¯Ŀ": 3421,
      "æĸ¹ç¨ĭ": 3422,
      "ä¼ģä¸ļ": 3423,
      "ä¸´": 3424,
      "Ġ61": 3425,
      "å·¨": 3426,
      "ç»ĦæĪĲ": 3427,
      "åŁºç¡": 3428,
      "éĻĦè¿ĳ": 3429,
      "å½ĵåľ°": 3430,
      "other": 3431,
      "å¥¥": 3432,
      "),": 3433,
      "æ´ŀ": 3434,
      "Ġticket": 3435,
      "åı¯ä»¥ä½¿çĶ¨": 3436,
      "åŁºç¡Ģ": 3437,
      "å¹¸": 3438,
      "Ġ98": 3439,
      "ivity": 3440,
      "çĤĴ": 3441,
      "è½¬æį¢": 3442,
      "Ġ92": 3443,
      "dex": 3444,
      "ä¹³": 3445,
      "orn": 3446,
      "çĨĬ": 3447,
      "æ··": 3448,
      "åĩºäºĨ": 3449,
      "ime": 3450,
      "Ġ000": 3451,
      "acy": 3452,
      "Ġeffect": 3453,
      "ï¼ļ\"": 3454,
      "ä¼°": 3455,
      "æĮĳæĪĺ": 3456,
      "Ġlear": 3457,
      "Ġseason": 3458,
      "nc": 3459,
      "Ġshow": 3460,
      "print": 3461,
      "å·§åħĭ": 3462,
      "ç»ĵæŀľæĺ¯": 3463,
      "alth": 3464,
      "Ġ81": 3465,
      "Ġ28": 3466,
      "Ġ71": 3467,
      "ç®ĢçŁŃ": 3468,
      "Ġpass": 3469,
      "Ġ25": 3470,
      "ä½łèĥ½": 3471,
      "200": 3472,
      "æ±ģ": 3473,
      "çī©è´¨": 3474,
      "å§Ķ": 3475,
      "æĪĳä¼ļ": 3476,
      "æ½®": 3477,
      "acity": 3478,
      "åı¦å¤ĸ": 3479,
      "cept": 3480,
      "å»ºç«ĭ": 3481,
      "è°¢è°¢": 3482,
      "åĲĮæł·": 3483,
      "Ġrandom": 3484,
      "åı¯ä»¥å¸®åĬ©": 3485,
      "Ġ97": 3486,
      "Ġ82": 3487,
      "çļĦéĩįè¦ģ": 3488,
      "è¿Ļä¸Ģ": 3489,
      "ç±»åĪ«": 3490,
      "ann": 3491,
      "Ġcreate": 3492,
      "uc": 3493,
      "Ġcalled": 3494,
      "äºĭæĥħ": 3495,
      "çļĦæĬĢ": 3496,
      "æĸĩåŃ¦": 3497,
      "Ġsens": 3498,
      "èģļ": 3499,
      "è¿·": 3500,
      "ition": 3501,
      "Ġsecond": 3502,
      "Ġlim": 3503,
      "ï¼ĮâĢľ": 3504,
      "Ġ93": 3505,
      "bum": 3506,
      "Ġ29": 3507,
      "åĪĨåĪ«": 3508,
      "Ġair": 3509,
      "iform": 3510,
      "çĽĲ": 3511,
      "ç¤¾äº¤": 3512,
      "åķĬ": 3513,
      "åŃ£èĬĤ": 3514,
      "ĠShe": 3515,
      "ä¸ĬæľĢ": 3516,
      "ven": 3517,
      "åĲįè¯į": 3518,
      "Ġsk": 3519,
      "æķ°ä¸º": 3520,
      "åı¥åŃĲä¸Ń": 3521,
      "æĺ¨": 3522,
      "åĬª": 3523,
      "çī¹åĪ«": 3524,
      "çļĦæ°´": 3525,
      "uted": 3526,
      "Ġpop": 3527,
      "è¿Ļåľº": 3528,
      "æ²ī": 3529,
      "ç¿»è¯ĳæĪĲä¸Ńæĸĩ": 3530,
      "æķĪæŀľ": 3531,
      "Ġmiss": 3532,
      "ately": 3533,
      "åħ¬å¼ı": 3534,
      "æķĪçİĩ": 3535,
      "çļĦçĪ": 3536,
      "çł´": 3537,
      "Ġvalid": 3538,
      "è·¯çĶ±": 3539,
      "æ©ĻåŃĲ": 3540,
      "Ġ91": 3541,
      "é¥®é£Ł": 3542,
      "Ġep": 3543,
      "ĠSh": 3544,
      "ä¸ĵä¸ļ": 3545,
      "Ġcapacity": 3546,
      "Ġadv": 3547,
      "Ġprocess": 3548,
      "Ġtrust": 3549,
      "è¿ĺåī©ä¸ĭ": 3550,
      "ä»¤äºº": 3551,
      "èĢĮä¸Ķ": 3552,
      "çĭ¬çī¹": 3553,
      "æ¬¢è¿İ": 3554,
      "é¥¼": 3555,
      "ins": 3556,
      "åĪĨç»Ļ": 3557,
      "çºª": 3558,
      "Ġwar": 3559,
      "Ġexper": 3560,
      "Ġuniform": 3561,
      "å·§åħĭåĬĽ": 3562,
      "fl": 3563,
      "Ġmed": 3564,
      "çļĦæĶ": 3565,
      "ç¼ĵ": 3566,
      "åĮºéĹ´åĨħ": 3567,
      "åĨħéĥ¨": 3568,
      "bs": 3569,
      "PI": 3570,
      "æĶ¹åıĺ": 3571,
      "ĠSp": 3572,
      "æķ°åŃ¦é¢ĺ": 3573,
      "Ġindex": 3574,
      "æĪĳåĸľæ¬¢": 3575,
      "åĢĭ": 3576,
      "æĲľ": 3577,
      "åŃ¤": 3578,
      "Ġwhat": 3579,
      "Ġadd": 3580,
      "æĽ´å¤ļçļĦ": 3581,
      "éĤ®ä»¶": 3582,
      "æĳĦ": 3583,
      "è¯·æ±Ĥæĸ¹": 3584,
      "å°ıåŃ¦": 3585,
      "ĠUnited": 3586,
      "Ġå°Ĩ": 3587,
      "isc": 3588,
      "Ġnegative": 3589,
      "æŁ¥è¯¢": 3590,
      "ually": 3591,
      "log": 3592,
      "ex": 3593,
      "ĠEng": 3594,
      "Ġincluding": 3595,
      "vern": 3596,
      "Ġtaken": 3597,
      "è´ŁéĿ¢": 3598,
      "åı¯ä»¥éĢļè¿ĩ": 3599,
      "ern": 3600,
      "å¾Ħ": 3601,
      "ç£": 3602,
      "Ġbasis": 3603,
      "è¿Ĳè¡Į": 3604,
      "åı³": 3605,
      "æľ«": 3606,
      "ivers": 3607,
      "åĪĨéħį": 3608,
      "Ġtechn": 3609,
      "å¸¸è§ģ": 3610,
      "çº¢èī²": 3611,
      "til": 3612,
      "è§Ĵèī²": 3613,
      "åı£æĦŁ": 3614,
      "æķ´ä½ĵ": 3615,
      "Me": 3616,
      "70": 3617,
      "ription": 3618,
      "çħ®": 3619,
      "ç¾İé£Ł": 3620,
      "æµĵ": 3621,
      "éŃĶ": 3622,
      "åŁºæľ¬": 3623,
      "åľ°åĮº": 3624,
      "Ġimport": 3625,
      "ster": 3626,
      "ç»ıåİĨ": 3627,
      "Ġmean": 3628,
      "Ġvar": 3629,
      "ĠRe": 3630,
      "çĽĳ": 3631,
      "åĭĩ": 3632,
      "ä¼´": 3633,
      "arge": 3634,
      "åıĤåĬł": 3635,
      "ah": 3636,
      "çļĦæı": 3637,
      "els": 3638,
      "ury": 3639,
      "ĠAs": 3640,
      "ince": 3641,
      "ash": 3642,
      "éĹ²": 3643,
      "ªæĸ½": 3644,
      "é¡ºåºı": 3645,
      "çĥĪ": 3646,
      "çļĦæĸ¹æ³ķ": 3647,
      "å¤įæĿĤ": 3648,
      "åįļ": 3649,
      "èĨ": 3650,
      "åįı": 3651,
      "å·¦": 3652,
      "Ġdra": 3653,
      "Ġprior": 3654,
      "ink": 3655,
      "ended": 3656,
      "Ġperson": 3657,
      "iver": 3658,
      "omaly": 3659,
      "ç¹": 3660,
      "ised": 3661,
      "å·¥åįķ": 3662,
      "æ¡Īä»¶": 3663,
      "æľĹ": 3664,
      "åŃĹç¬¦ä¸²": 3665,
      "ps": 3666,
      "Ġfam": 3667,
      "ouse": 3668,
      "è·Ł": 3669,
      "come": 3670,
      "è®¿": 3671,
      "Ġmay": 3672,
      "Ġcontro": 3673,
      "çĶ²": 3674,
      "Ġsupport": 3675,
      "Ġabove": 3676,
      "Ġexcell": 3677,
      "åĩī": 3678,
      "Ġcount": 3679,
      "ret": 3680,
      "ä¹ħ": 3681,
      "åºĵ": 3682,
      "é©¶": 3683,
      "æ¥¼": 3684,
      "urity": 3685,
      "Ġthese": 3686,
      "è¡¡": 3687,
      "Ġsever": 3688,
      "au": 3689,
      "åªĴ": 3690,
      "ç»§": 3691,
      "æĦī": 3692,
      "ared": 3693,
      "ih": 3694,
      "æĬ¥åĳĬ": 3695,
      "Ġabstain": 3696,
      "çļĦä¸»è¦ģ": 3697,
      "æĺİå¤©": 3698,
      "æ°¸": 3699,
      "çĿ¡": 3700,
      "éĥ½æľī": 3701,
      "Ġalbum": 3702,
      "Ġexpl": 3703,
      "ĠJohn": 3704,
      "åī©ä½Ļ": 3705,
      "è¡Ģ": 3706,
      "ify": 3707,
      "ä¿ĥ": 3708,
      "çº¸": 3709,
      "Ġtas": 3710,
      "ä¸ĢçĽ´": 3711,
      "Ġcreated": 3712,
      "é¾Ħ": 3713,
      "Ġtyp": 3714,
      "ä»į": 3715,
      "æĦıå¤§åĪ©": 3716,
      "ä¹ĭæ¯Ķ": 3717,
      "ism": 3718,
      "æ°ĶåĢĻåıĺåĮĸ": 3719,
      "åıįåºĶ": 3720,
      "çĶŁäº§": 3721,
      "åĩ¡": 3722,
      "Ġexcellent": 3723,
      "ä»Ģä¹Īæĺ¯": 3724,
      "ĠHow": 3725,
      "ä½įäºİ": 3726,
      "ä»¥ä¸Ĭ": 3727,
      "éĢĻ": 3728,
      "ke": 3729,
      "åºľ": 3730,
      "çļĦæ°Ķ": 3731,
      "ç¾İåĳ³": 3732,
      "çĶŁæĢģ": 3733,
      "çº½": 3734,
      "æĭ¼": 3735,
      "éº¼": 3736,
      "Ġrep": 3737,
      "èĥ½æºĲ": 3738,
      "Ġdown": 3739,
      "Ġreported": 3740,
      "ership": 3741,
      "æļĹ": 3742,
      "Ġsensit": 3743,
      "outing": 3744,
      "Ġfin": 3745,
      "ä¸įéĶĻ": 3746,
      "åĸĿ": 3747,
      "Th": 3748,
      "Ġquick": 3749,
      "Ġed": 3750,
      "æ¤Ĵ": 3751,
      "ĠÃ·": 3752,
      "Ġneut": 3753,
      "éĻĪ": 3754,
      "æĹ¶åĪ»": 3755,
      "çļĦçľ": 3756,
      "é¡¹çĽ®": 3757,
      "éĩıçļĦ": 3758,
      "çĶµè§Ĩ": 3759,
      "æĿ¥è¶Ĭ": 3760,
      "Ġfinal": 3761,
      "ç»ª": 3762,
      "con": 3763,
      "éĴĪå¯¹": 3764,
      "ĠâĢľ": 3765,
      "Ġsim": 3766,
      "çĽ¸å¯¹": 3767,
      "æľµ": 3768,
      "Ġassessment": 3769,
      "èĻļ": 3770,
      "çŁ¥è¯Ĩ": 3771,
      "åįķä¸ª": 3772,
      "çĸ¾": 3773,
      "è¶ĬæĿ¥è¶Ĭ": 3774,
      "ç»ĵè®º": 3775,
      "çĽ¸ä¼¼": 3776,
      "Ġaver": 3777,
      "key": 3778,
      "ĠAt": 3779,
      "çļĦæĢ»": 3780,
      "Ġclass": 3781,
      "å¿ħé¡»": 3782,
      "ology": 3783,
      "ather": 3784,
      "çļĦè´¨éĩı": 3785,
      "æ±ī": 3786,
      "aw": 3787,
      "æ¬§": 3788,
      "ential": 3789,
      "æľīä»Ģä¹Ī": 3790,
      "èĤ¡": 3791,
      "ĠLe": 3792,
      "æŃ£éĿ¢": 3793,
      "çĨŁ": 3794,
      "aph": 3795,
      ").": 3796,
      "ty": 3797,
      "æĦ¿": 3798,
      "æ¶ī": 3799,
      "ither": 3800,
      "çļĦåºĶçĶ¨": 3801,
      "è¢ĭ": 3802,
      "âĢĻ": 3803,
      "udit": 3804,
      "urther": 3805,
      "ters": 3806,
      "Ġbelow": 3807,
      "è®©æĪĳä»¬": 3808,
      "å±Ģ": 3809,
      "èģĬ": 3810,
      "ages": 3811,
      "æŀĦæĪĲ": 3812,
      "è¸": 3813,
      "åĩºæĿ¥": 3814,
      "ä¸įè¦ģ": 3815,
      "ences": 3816,
      "Ġlife": 3817,
      "36": 3818,
      "ä¸Ŀ": 3819,
      "åĬªåĬĽ": 3820,
      "med": 3821,
      "è½¨è¿¹": 3822,
      "å¯¹åºĶ": 3823,
      "å¿«éĢŁ": 3824,
      "ä¸Ģä½į": 3825,
      "å®ł": 3826,
      "å¹³æĸ¹": 3827,
      "å®ŀéĻħ": 3828,
      "åıĹçĲĨ": 3829,
      "åĺ": 3830,
      "å¹´è½»": 3831,
      "å®Ļ": 3832,
      "ained": 3833,
      "éļĲ": 3834,
      "Ġmark": 3835,
      "line": 3836,
      "æľīå¾Īå¤ļ": 3837,
      "åı£åĳ³": 3838,
      "Ġcontin": 3839,
      "ross": 3840,
      "Ġdisput": 3841,
      "Ġepis": 3842,
      "æĽ¾": 3843,
      "chant": 3844,
      "å¿ĥçĲĨ": 3845,
      "é¡¿": 3846,
      "Ġmet": 3847,
      "Ġ40": 3848,
      "è§ĤçĤ¹": 3849,
      "è½¯ä»¶": 3850,
      "å®½æĿ¾": 3851,
      "å¾Īå·®": 3852,
      "Ġtrace": 3853,
      "ä»¥ä¾¿": 3854,
      "Ġstart": 3855,
      "my": 3856,
      "ined": 3857,
      "Ġsingle": 3858,
      "éĩĩåıĸ": 3859,
      "èĩªçĦ¶è¯Ńè¨Ģå¤ĦçĲĨ": 3860,
      "çĤ¼": 3861,
      "lim": 3862,
      "éľ²": 3863,
      "ĠCon": 3864,
      "ä»Ģéº¼": 3865,
      "æĶ¾æĿ¾": 3866,
      "æ±Ł": 3867,
      "å®ĩå®Ļ": 3868,
      "Ġneutral": 3869,
      "orld": 3870,
      "ç»Ļå®ļä¸Ģä¸ª": 3871,
      "ĠĊ": 3872,
      "ä»¿": 3873,
      "Routing": 3874,
      "Ġdire": 3875,
      "åı¯ä»¥åľ¨": 3876,
      "ooking": 3877,
      "èĪª": 3878,
      "Ġseries": 3879,
      "ield": 3880,
      "çŃīçº§éĹ¨æ§Ľ": 3881,
      "Ġeng": 3882,
      "å¼Ĥå¸¸": 3883,
      "å¿«ä¹Ĳ": 3884,
      "å¿ĺ": 3885,
      "Ġsmall": 3886,
      "è¡Ĺ": 3887,
      "Ġpreference": 3888,
      "ç½ĳç«Ļ": 3889,
      "çģ¯": 3890,
      "åķĨåĵģæĸĩæ¡Ī": 3891,
      "af": 3892,
      "è¿Ļéĥ¨çĶµå½±": 3893,
      "åĮ»çĶŁ": 3894,
      "èĤ¤": 3895,
      "Ġselection": 3896,
      "çļĦæĥħåĨµä¸ĭ": 3897,
      "çļĦç³": 3898,
      "èĽĭç³ķ": 3899,
      "å®ĺ": 3900,
      "å¤©ç©º": 3901,
      "åĨľ": 3902,
      "æ»¡è¶³": 3903,
      "å¤«": 3904,
      "ĠBrit": 3905,
      "åıªæľī": 3906,
      "Ġpower": 3907,
      "Ġstate": 3908,
      "çŃīåı¯èĥ½": 3909,
      "åĶ±": 3910,
      "åĪĽæĦı": 3911,
      "ness": 3912,
      "Ġlead": 3913,
      "æ³³": 3914,
      "ç¥ŀç§ĺ": 3915,
      "è´£": 3916,
      "uch": 3917,
      "eng": 3918,
      "ä¾Ŀæį®": 3919,
      "æĲľç´¢": 3920,
      "æ£®": 3921,
      "ases": 3922,
      "ĠAPI": 3923,
      "ä½¿å¾Ĺ": 3924,
      "Ġuntil": 3925,
      "æµĭè¯ķ": 3926,
      "æĭĮ": 3927,
      "Ġknown": 3928,
      "èµı": 3929,
      "åĪĨåĪ°": 3930,
      "äººçī©": 3931,
      "åħ¬åı¸çļĦ": 3932,
      "Ġamount": 3933,
      "num": 3934,
      "æŃ»": 3935,
      "çº½çº¦": 3936,
      "ird": 3937,
      "éªĮè¯ģ": 3938,
      "Ġbecame": 3939,
      "ç¾İåħĥ": 3940,
      "åĬłæĿĥ": 3941,
      "äººæ°ĳ": 3942,
      "èģĶç³»": 3943,
      "Ġredu": 3944,
      "èĮĥåĽ´": 3945,
      "ept": 3946,
      "ä¸Ģæ¬¡": 3947,
      "ä¸ĭåĪĹ": 3948,
      "çļĦæ¦Ĥ": 3949,
      "ãĢģãĢĬ": 3950,
      "è¶ĭ": 3951,
      "99": 3952,
      "å·¥ç¨ĭ": 3953,
      "å¦Ī": 3954,
      "ä¾ĭåŃĲ": 3955,
      "¡èĲ": 3956,
      "æķĳ": 3957,
      "ç®ĢåįķçļĦ": 3958,
      "ants": 3959,
      "ç³»åĪĹ": 3960,
      "åºĬ": 3961,
      "å¾Ĺåĩº": 3962,
      "æĬ¥éģĵ": 3963,
      "è´¦åįķ": 3964,
      "åħ´è¶£": 3965,
      "å¯Ł": 3966,
      "åģıå¥½": 3967,
      "æ²»çĸĹ": 3968,
      "éĩįæĸ°": 3969,
      "æĬ½": 3970,
      "å¹´é¾Ħ": 3971,
      "æ·±åº¦": 3972,
      "çķħ": 3973,
      "Ġreal": 3974,
      "å¥ĸ": 3975,
      "Ġä¸ĢèĪ¬": 3976,
      "osen": 3977,
      "åĬłæĿĥéļıæľº": 3978,
      "èŃ¦": 3979,
      "èľľ": 3980,
      "è¶Ĭé«ĺ": 3981,
      "atch": 3982,
      "æĦıä¹ī": 3983,
      "çĥ§": 3984,
      "èĹı": 3985,
      "Ġwin": 3986,
      "çļĦæĮ": 3987,
      "Ġå¾Īå¥½": 3988,
      "çĦ¶èĢĮ": 3989,
      "åĪĨå¸ĥ": 3990,
      "æĹ¶æ®µçļĦæĿĥéĩį": 3991,
      "ä¸İä¼ļèĢħåľ¨è¯¥": 3992,
      "ä¸İä¼ļèĢħåľ¨è¯¥æĹ¶æ®µçļĦæĿĥéĩį": 3993,
      "æĦŁè°¢": 3994,
      "èĥĮæĻ¯": 3995,
      "æŀ¶": 3996,
      "iness": 3997,
      "åªĴä½ĵ": 3998,
      "%;": 3999,
      "Ġ*": 4000,
      "çļĦå¤§": 4001,
      "chool": 4002,
      "å¹³åı°": 4003,
      "æĶ¯ä»ĺ": 4004,
      "è¯Ħä¼°": 4005,
      "èĳ±": 4006,
      "åĪĨç±»ä¸º": 4007,
      "æĲŃéħį": 4008,
      "lish": 4009,
      "çŃĸçķ¥": 4010,
      "åĢ¼å¾Ĺ": 4011,
      "æķıæĦŁ": 4012,
      "ä»¥ä¸ĭæĺ¯ä¸Ģéģĵ": 4013,
      "åĲĮä¸Ģ": 4014,
      "Meeting": 4015,
      "Ġbalance": 4016,
      "Ġå¾Īå·®": 4017,
      "çİī": 4018,
      "Ġè¾ĥå¥½": 4019,
      "Ġè¾ĥå·®": 4020,
      "å®łçī©": 4021,
      "æ£ĢæŁ¥": 4022,
      "ä¿®æŃ£": 4023,
      "86": 4024,
      "Ġoutcome": 4025,
      "è¿ĩç¨ĭä¸Ń": 4026,
      "å°ıåŃ¦æķ°åŃ¦é¢ĺ": 4027,
      "åĪł": 4028,
      "åĨĴ": 4029,
      "éĩĳé¢Ŀ": 4030,
      "An": 4031,
      "ĠZ": 4032,
      "ç©ºæ°Ķ": 4033,
      "ley": 4034,
      "Ġarch": 4035,
      "å¡Ķ": 4036,
      "å¿Ĩ": 4037,
      "ç»§ç»Ń": 4038,
      "ä»¥ä¸ĭæĺ¯ä¸Ģéģĵå°ıåŃ¦æķ°åŃ¦é¢ĺ": 4039,
      "æ±¤": 4040,
      "illion": 4041,
      "å®¹æĺĵ": 4042,
      "çļĦçĥ": 4043,
      "å¤ļä¸ª": 4044,
      "é¢Ĺç³ĸæŀľ": 4045,
      "çĹĩ": 4046,
      "ĠSc": 4047,
      "é¥®æĸĻ": 4048,
      "Ġorig": 4049,
      "éĺ´æĢ§": 4050,
      "ina": 4051,
      "éĤ»": 4052,
      "æ¸ħæĻ": 4053,
      "acc": 4054,
      "ner": 4055,
      "è¯·åĳĬè¯īæĪĳ": 4056,
      "ium": 4057,
      "æľīå¤ļå°ĳ": 4058,
      "Ġsol": 4059,
      "ç¹ģ": 4060,
      "æİªæĸ½": 4061,
      "æľĿ": 4062,
      "ä¸Ģå®ļ": 4063,
      "çĤº": 4064,
      "çĸ«": 4065,
      "Requested": 4066,
      "è§¦": 4067,
      "æĦŁè§ī": 4068,
      "èĵĿèī²": 4069,
      "åĤ¨": 4070,
      "26": 4071,
      "erchant": 4072,
      "çĸ¾çĹħ": 4073,
      "angu": 4074,
      "åİļ": 4075,
      "Ġsaid": 4076,
      "é»İ": 4077,
      "file": 4078,
      "è´§": 4079,
      "ically": 4080,
      "ĠInd": 4081,
      "çĽ®åīį": 4082,
      "åĸľæ¬¢çļĦ": 4083,
      "Ġrather": 4084,
      "esp": 4085,
      "ands": 4086,
      "Ġopen": 4087,
      "éĿł": 4088,
      "æ¹ĸ": 4089,
      "çļĦæ²Ļ": 4090,
      "Ġperformed": 4091,
      "ĠÐ": 4092,
      "gram": 4093,
      "çĮľ": 4094,
      "è´µ": 4095,
      "oot": 4096,
      "ective": 4097,
      "ributed": 4098,
      "Ġstory": 4099,
      "Ġscored": 4100,
      "billing": 4101,
      "çļĦçł": 4102,
      "not": 4103,
      "çĵ¶": 4104,
      "è¯Ħå§Ķ": 4105,
      "çĻ»": 4106,
      "ives": 4107,
      "åĪĽæĸ°": 4108,
      "rect": 4109,
      "Ġ100": 4110,
      "Ġeither": 4111,
      "ĠThey": 4112,
      "ä½Ľ": 4113,
      "Ġreleased": 4114,
      "Ġseveral": 4115,
      "Ġchosen": 4116,
      "day": 4117,
      "è®¨è®º": 4118,
      "è¯įæ±ĩ": 4119,
      "Ġpar": 4120,
      "Ġdifferent": 4121,
      "çļĦä¸»é¢ĺ": 4122,
      "ç§ģ": 4123,
      "ä¸ĬéĿ¢": 4124,
      "æĿŁ": 4125,
      "ek": 4126,
      "Ġdog": 4127,
      "èĢĲ": 4128,
      "æķ°çļĦ": 4129,
      "Ġusing": 4130,
      "Ġocc": 4131,
      "åŃ¦æł¡": 4132,
      "ober": 4133,
      "éĢĤçĶ¨äºİ": 4134,
      "scription": 4135,
      "æĹı": 4136,
      "«èĲ¨": 4137,
      "éĿ¢åĮħ": 4138,
      "ä¸Ĭæµ·": 4139,
      "çļĦæµ·": 4140,
      "è¶ĭåĬ¿": 4141,
      "è§īå¾Ĺ": 4142,
      "æ··åĲĪ": 4143,
      "åĬĽéĩı": 4144,
      "æ£Ĵ": 4145,
      "å¤ļç§į": 4146,
      "ãĢĭãĢģãĢĬ": 4147,
      "ç®Ģæ´ģ": 4148,
      "è¿Ļä¸ªåı¥åŃĲ": 4149,
      "è°±": 4150,
      "éĵ¾": 4151,
      "lected": 4152,
      "è¾Ĩ": 4153,
      "çļĦæķ°éĩı": 4154,
      "æĶ¹åĸĦ": 4155,
      "Ġcharacter": 4156,
      "åĪłéĻ¤": 4157,
      "ample": 4158,
      "åĵº": 4159,
      "è¯»èĢħ": 4160,
      "éĢĶ": 4161,
      "éĢłæĪĲ": 4162,
      "äºīè®®": 4163,
      "åĳ³éģĵ": 4164,
      "èĮĦ": 4165,
      "çī©çĲĨ": 4166,
      "Ġbus": 4167,
      "ç»Ļåĩºä¸Ģä¸ª": 4168,
      "35": 4169,
      "rid": 4170,
      "ä»¥ä¸ĭåı¥åŃĲ": 4171,
      "åĽłä¸ºå®ĥ": 4172,
      "Ġfive": 4173,
      "è¯įè¯Ń": 4174,
      "çľģ": 4175,
      "è¡ĮåĬ¨": 4176,
      "è¿Ķ": 4177,
      "æİī": 4178,
      "Ġprom": 4179,
      "åĲĪéĢĤ": 4180,
      "ination": 4181,
      "Ġbecause": 4182,
      "æľīäºĽ": 4183,
      "å®ļä¹ī": 4184,
      "åĬ±": 4185,
      "æ±¡": 4186,
      "though": 4187,
      "éĹ¸": 4188,
      "æ»ĳ": 4189,
      "è¡£æľį": 4190,
      "aving": 4191,
      "Ġdecision": 4192,
      "ved": 4193,
      "åľ°çĤ¹": 4194,
      "æļĤ": 4195,
      "Ġinclude": 4196,
      "ĠAmerican": 4197,
      "api": 4198,
      "æ³ķè¯Ń": 4199,
      "Ġtransfer": 4200,
      "Ġnear": 4201,
      "Ġdeterm": 4202,
      "ä½Ļé¢Ŀ": 4203,
      "éĨĴ": 4204,
      "çļĦæĹ¶éĹ´": 4205,
      "è¿ĩåİ»": 4206,
      "Ġlarge": 4207,
      "ç«¥": 4208,
      "éĽħ": 4209,
      "ç»ıéªĮ": 4210,
      "é©¾": 4211,
      "åį³åıĸ": 4212,
      "æĺ¨å¤©": 4213,
      "çī©ä½ĵ": 4214,
      "ç¼ĸç¨ĭ": 4215,
      "Ġmusic": 4216,
      "éĶ»": 4217,
      "è®©ä½ł": 4218,
      "æĬ±": 4219,
      "åķĨæĪ·": 4220,
      "ains": 4221,
      "æķ°æį®éĽĨ": 4222,
      "çļĦåĪ¤å®ļ": 4223,
      "èķī": 4224,
      "éĹ¸éĹ¨": 4225,
      "ital": 4226,
      "ç¯®": 4227,
      "æ¶īåıĬ": 4228,
      "æĬĢå·§": 4229,
      "75": 4230,
      "ne": 4231,
      "Ġwater": 4232,
      "Ġi": 4233,
      "Ġconf": 4234,
      "åı¯ä¿¡": 4235,
      "elih": 4236,
      "æ³¡": 4237,
      "Gate": 4238,
      "over": 4239,
      "Ġwithin": 4240,
      "éļĶ": 4241,
      "æ¯Ĵ": 4242,
      "gg": 4243,
      "å°Ĭ": 4244,
      "iam": 4245,
      "Ġposs": 4246,
      "ĠWorld": 4247,
      "èİĵ": 4248,
      "ists": 4249,
      "Ġcr": 4250,
      "æ¹¿": 4251,
      "Ġhealth": 4252,
      "Ġcompare": 4253,
      "éĶ»çĤ¼": 4254,
      "ana": 4255,
      "çĶ¨æĿ¥": 4256,
      "äºĭå®ŀ": 4257,
      "å¯Ĵ": 4258,
      "æĮĩæķ°": 4259,
      "elihood": 4260,
      "å§Ĩ": 4261,
      "Ġgovern": 4262,
      "domain": 4263,
      "åĢĳ": 4264,
      "ç§ĭå¤©": 4265,
      "å²Ľ": 4266,
      "Ġrest": 4267,
      "ä¸įå¾Ĺ": 4268,
      "æľĢå¤§": 4269,
      "ull": 4270,
      "æ¯ıä¸ªæľĭåıĭ": 4271,
      "ajor": 4272,
      "Ġåħĥ": 4273,
      "é¦Ļèķī": 4274,
      "ç¨³": 4275,
      "Ġlikelihood": 4276,
      "Ġhum": 4277,
      "erate": 4278,
      "æĤ£": 4279,
      "çĶŁæĪĲåķĨåĵģæĸĩæ¡Ī": 4280,
      "Ġmil": 4281,
      "Ġ35": 4282,
      "æĶ¯éĵħç¬Ķ": 4283,
      "åĲİçļĦ": 4284,
      "Ġsus": 4285,
      "une": 4286,
      "åĮĸåŃ¦": 4287,
      "è¾£": 4288,
      "åħ¬éĩĮ": 4289,
      "Ġdescrib": 4290,
      "éĢĤå½ĵ": 4291,
      "åĪļ": 4292,
      "æī¿": 4293,
      "è®¿éĹ®": 4294,
      "å¤ıåŃ£": 4295,
      "è¶ħè¿ĩ": 4296,
      "å¦Ļ": 4297,
      "osed": 4298,
      "Ġvis": 4299,
      "çĶµèĦĳ": 4300,
      "æµģè¡Į": 4301,
      "åıĹæ¬¢è¿İ": 4302,
      "ĠWar": 4303,
      "Ġdeny": 4304,
      "éĸ": 4305,
      "Ġbre": 4306,
      "éº¦": 4307,
      "Ġasked": 4308,
      "æľºä¼ļ": 4309,
      "åĵºä¹³": 4310,
      "åĵªä¸Ģæ¡£": 4311,
      "æ¯ıä¸ªäºº": 4312,
      "ae": 4313,
      "åħĪéªĮèĥľç®Ĺ": 4314,
      "Ġbuild": 4315,
      "ĠBl": 4316,
      "ç»¿èī²": 4317,
      "æİĴåĪĹ": 4318,
      "enc": 4319,
      "åľ¨ä¸Ģèµ·": 4320,
      "æ¸©æļĸ": 4321,
      "å®Ī": 4322,
      "æĶ¾åħ¥": 4323,
      "48": 4324,
      "èİ·æī¹": 4325,
      "Ġconsid": 4326,
      "æ¶¦": 4327,
      "å¹¸ç¦ı": 4328,
      "æ¸¸æ³³": 4329,
      "æĤ¦": 4330,
      "åĬ¨è¯į": 4331,
      "çľł": 4332,
      "Ġepisode": 4333,
      "Ø§": 4334,
      "Ġcity": 4335,
      "ä¸įåı¯": 4336,
      "ĠSl": 4337,
      "ç¼©": 4338,
      "éĩĮæľī": 4339,
      "åį±": 4340,
      "å®£": 4341,
      "éģĹ": 4342,
      "ä¸Ģæł·": 4343,
      "åİ»äºĨ": 4344,
      "æĺł": 4345,
      "lem": 4346,
      "ergy": 4347,
      "Ġresource": 4348,
      "Ġcrit": 4349,
      "å·´é»İ": 4350,
      "Ġarr": 4351,
      "åĽŀçŃĶéĹ®é¢ĺ": 4352,
      "æĢ§èĥ½": 4353,
      "äººåĲį": 4354,
      "iqu": 4355,
      "æĭĴ": 4356,
      "æĥħèĬĤ": 4357,
      "å¥¹çļĦ": 4358,
      "çļĦåľ°æĸ¹": 4359,
      "æĹĭ": 4360,
      "Ġthough": 4361,
      "éĢĢæ¬¾åĲĹ": 4362,
      "åħ¶ä¸ŃçļĦ": 4363,
      "report": 4364,
      "ats": 4365,
      "Ġbegan": 4366,
      "çļĦç¤": 4367,
      "å¾ª": 4368,
      "æĴŃ": 4369,
      "æıĲä¾Ľä¸Ģä¸ª": 4370,
      "è¿Ļä¸¤ä¸ª": 4371,
      "å®īæİĴ": 4372,
      "å°ģ": 4373,
      "Ġfri": 4374,
      "èµŀ": 4375,
      "Ġprot": 4376,
      "ç»ĥä¹ł": 4377,
      "(\"": 4378,
      "XX": 4379,
      "aged": 4380,
      "å¹¿åĳĬ": 4381,
      "Ġcorrect": 4382,
      "è²": 4383,
      "Ġour": 4384,
      "è¿Ľä¸ĢæŃ¥": 4385,
      "Ġfurther": 4386,
      "åİĺ": 4387,
      "æ¬£": 4388,
      "vent": 4389,
      "æľīçĿĢ": 4390,
      "ĠPl": 4391,
      "ĠFr": 4392,
      "æĺ¯çĶ±": 4393,
      "æİ¢è®¨": 4394,
      "ĠPro": 4395,
      "ä¹°äºĨ": 4396,
      "Ġimprov": 4397,
      "èĢ³": 4398,
      "è¯Ĭ": 4399,
      "Ġimportant": 4400,
      "sy": 4401,
      "tle": 4402,
      "äººåĳĺ": 4403,
      "çļĦæĹ¶åĢĻ": 4404,
      "Ġtop": 4405,
      "66": 4406,
      "Ġconver": 4407,
      "Ġlimit": 4408,
      "çļĦè¯Ŀ": 4409,
      "Ġcontrol": 4410,
      "ditional": 4411,
      "èħ¿": 4412,
      "Ġgreat": 4413,
      "éĽ¶": 4414,
      "çļĦæĳ": 4415,
      "é¡¾": 4416,
      "å¼ºè°ĥ": 4417,
      "add": 4418,
      "æĶ¿åºľ": 4419,
      "Ġship": 4420,
      "åģ¥èº«": 4421,
      "ç¥Ŀ": 4422,
      "å¥ı": 4423,
      "74": 4424,
      "æľĢä½³": 4425,
      "____": 4426,
      "æł¸éªĮç»ĵæŀľ": 4427,
      "Ġcompute": 4428,
      "çļĦçĪ±": 4429,
      "æĸ¹åĲĳ": 4430,
      "Ġsusp": 4431,
      "ä¸ĢèĪ¬": 4432,
      "Ġsand": 4433,
      "æ¡Į": 4434,
      "åĳ¼åĲ¸": 4435,
      "çļĦæ®": 4436,
      "ected": 4437,
      "hor": 4438,
      "Ġele": 4439,
      "è¿Ľè¡ĮåĪĨç±»": 4440,
      "äººçĶŁ": 4441,
      "è¡¨éĿ¢": 4442,
      "Ġactions": 4443,
      "èĳĹåĲįçļĦ": 4444,
      "ody": 4445,
      "89": 4446,
      "æĢĢ": 4447,
      "å½¢å®¹": 4448,
      "ĠGr": 4449,
      "Ġorganization": 4450,
      "æ±ł": 4451,
      "ĠStates": 4452,
      "çļĦç³ĸ": 4453,
      "ĠCl": 4454,
      "Ġearly": 4455,
      "åħ±åĲĮ": 4456,
      "æ¦Ĥæĭ¬": 4457,
      "ä¸ŃæľĢ": 4458,
      "çĦ¦": 4459,
      "æ¶²": 4460,
      "æĻļä¸Ĭ": 4461,
      "ĠTr": 4462,
      "åĹ": 4463,
      "Ġsoc": 4464,
      "æ°Ķæ¸©": 4465,
      "Ġbest": 4466,
      "èĩ³å°ĳ": 4467,
      "Ġinternal": 4468,
      "åĲĮä¹īè¯į": 4469,
      "Ġ50": 4470,
      "æİ¥ä¸ĭæĿ¥": 4471,
      "çķª": 4472,
      "çļĦéļıæľº": 4473,
      "ç»ĺ": 4474,
      "çļĦæ³": 4475,
      "ĠAust": 4476,
      "è¯¾": 4477,
      "33": 4478,
      "Ġsay": 4479,
      "Ġpublic": 4480,
      "æ¦": 4481,
      "éĤ£ä¸Ģ": 4482,
      "Ġlangu": 4483,
      "Ġsum": 4484,
      "åıĹåĪ°": 4485,
      "çĮ®": 4486,
      "çĽĽ": 4487,
      "æĹ¨": 4488,
      "Ġcustomer": 4489,
      "åĪĽå»ºä¸Ģä¸ª": 4490,
      "ĠAfter": 4491,
      "ç»ıå¸¸": 4492,
      "ä¼ĳéĹ²": 4493,
      "çļĦæ¯ı": 4494,
      "é¼ł": 4495,
      "è¡Įä¸ļ": 4496,
      "å½¢çļĦ": 4497,
      "Ġsign": 4498,
      "Ġplan": 4499,
      "æĺŁæľŁ": 4500,
      "æŃĮè¯į": 4501,
      "ĠQ": 4502,
      "çļĦçĭ": 4503,
      "Ġpartic": 4504,
      "æıĲä¾ĽäºĨ": 4505,
      "Ġprogram": 4506,
      "Ġarea": 4507,
      "Ġdirect": 4508,
      "ä¹İ": 4509,
      "æĹ¥æľ¬": 4510,
      "å®«": 4511,
      "ç»ĨèĬĤ": 4512,
      "ä¿®æĶ¹": 4513,
      "used": 4514,
      "Ġpur": 4515,
      "amed": 4516,
      "åĪĴåĪĨ": 4517,
      "å¼ķèµ·": 4518,
      "ä»İæľª": 4519,
      "Ġdesign": 4520,
      "åĨ²": 4521,
      "èĭ¦": 4522,
      "çĹĽ": 4523,
      "æĽ¿æį¢": 4524,
      "Ġhome": 4525,
      "Ġinst": 4526,
      "éĥ½è¦ģ": 4527,
      "Ġä¸ª": 4528,
      "ç§Ģ": 4529,
      "Ġjust": 4530,
      "Ġæľī": 4531,
      "é¼ĵ": 4532,
      "æĭħ": 4533,
      "è°·": 4534,
      "Ġactive": 4535,
      "Ġanomaly": 4536,
      "ys": 4537,
      "ç±į": 4538,
      "æķ£æŃ¥": 4539,
      "ä¾Ŀæ¬¡": 4540,
      "å°º": 4541,
      "åĬ©äºİ": 4542,
      "space": 4543,
      "Ġinform": 4544,
      "ä¹Ļ": 4545,
      "æľºåĻ¨äºº": 4546,
      "arr": 4547,
      "å¹´çļĦ": 4548,
      "çŃīæĸ¹éĿ¢": 4549,
      "ĠFor": 4550,
      "æĭĴç»Ŀ": 4551,
      "enn": 4552,
      "ering": 4553,
      "Ġcredit": 4554,
      "å¹ħ": 4555,
      "åľ¨ä¸Ģä¸ª": 4556,
      "iron": 4557,
      "reen": 4558,
      "éĩıåŃĲ": 4559,
      "Is": 4560,
      "åİĭåĬĽ": 4561,
      "Ġca": 4562,
      "åĳĺå·¥": 4563,
      "å¤ľéĹ´": 4564,
      "åĨ³çŃĸ": 4565,
      "èĲ¥åħ»": 4566,
      "ä¿¡çĶ¨": 4567,
      "æĹłè®º": 4568,
      "Ġext": 4569,
      "çıį": 4570,
      "ales": 4571,
      "éĩĳèŀį": 4572,
      "åĮ¹": 4573,
      "è°ĥæķ´": 4574,
      "Ġnet": 4575,
      "Ġalong": 4576,
      "ç©ºéĹ´": 4577,
      "æıĲä¾ĽçļĦ": 4578,
      "ç§ĳå¹»": 4579,
      "å¢ŀå¼º": 4580,
      "è¿Ļæ¬¾": 4581,
      "Ġ%": 4582,
      "Ġgl": 4583,
      "çģ¾": 4584,
      "çĽĴ": 4585,
      "):": 4586,
      "ĠAI": 4587,
      "åĵºä¹³åĬ¨çī©": 4588,
      "çĽ´åĪ°": 4589,
      "éĻįä½İ": 4590,
      "Ġcommun": 4591,
      "åįł": 4592,
      "2021": 4593,
      "èģĶç½ĳ": 4594,
      "Ġdistributed": 4595,
      "å°¾": 4596,
      "Ġplace": 4597,
      "ä¸ºæĪĳ": 4598,
      "è½®": 4599,
      "ches": 4600,
      "éĹª": 4601,
      "å¤§åŃ¦": 4602,
      "çıł": 4603,
      "æİĮ": 4604,
      "cel": 4605,
      "è¿Ļé¦ĸ": 4606,
      "Ġmuch": 4607,
      "ãĢĤâĢľ": 4608,
      "ĠEvery": 4609,
      "çļĦçŁŃ": 4610,
      "Ġmodel": 4611,
      "èĩªæĪĳ": 4612,
      "åĲĪä½ľ": 4613,
      "åį·": 4614,
      "ets": 4615,
      "Ġenergy": 4616,
      "è´Ŀ": 4617,
      "Ġmillion": 4618,
      "è¾ĥé«ĺçļĦ": 4619,
      "é£ĺ": 4620,
      "uss": 4621,
      "ĠWh": 4622,
      "æĲħ": 4623,
      "çļĦæİ¨": 4624,
      "å·¥ä½ľåĮº": 4625,
      "ä¸ĭæĸĩ": 4626,
      "çļĦæ®µ": 4627,
      "çĵľ": 4628,
      "çļĦæ´": 4629,
      "Ġoriginal": 4630,
      "65": 4631,
      "utes": 4632,
      "å¹¶åľ¨": 4633,
      "ves": 4634,
      "Ġtools": 4635,
      "å£°éŁ³": 4636,
      "Ġperformance": 4637,
      "box": 4638,
      "ĠBr": 4639,
      "atures": 4640,
      "ator": 4641,
      "åĪº": 4642,
      "äººå·¥æĻºèĥ½æĬĢæľ¯": 4643,
      "Ġmov": 4644,
      "ç¥ŀç»ı": 4645,
      "ç»ŃåĨĻ": 4646,
      "åĲĮæĹ¶ä¹Ł": 4647,
      "37": 4648,
      "åĿ¦": 4649,
      "æĬĢèĥ½": 4650,
      "ä¸ĸçķĮä¸ĬæľĢ": 4651,
      "æ¸ħæĻ°": 4652,
      "æĸĹ": 4653,
      "è¶³çĲĥ": 4654,
      "æīĢæľīçļĦ": 4655,
      "è¿Ļæ®µæĸĩæľ¬": 4656,
      "åģļåĩº": 4657,
      "æ±¡æŁĵ": 4658,
      "åĽŀè°ĥ": 4659,
      "ä¿ĥè¿Ľ": 4660,
      "ĥåľ": 4661,
      "å¹¶åĪĹ": 4662,
      "èĭı": 4663,
      "åĲĮæł·æľīæķĪ": 4664,
      "äººæķ°": 4665,
      "åĲ«ä¹ī": 4666,
      "åĽº": 4667,
      "Ġbilling": 4668,
      "æģĲ": 4669,
      "å¥³çĶŁ": 4670,
      "åĪĨäº«": 4671,
      "Ġaverage": 4672,
      "Ġç¬¬": 4673,
      "Ġdel": 4674,
      "ç±»ä¼¼": 4675,
      "Ġago": 4676,
      "å°½ç®¡": 4677,
      "wards": 4678,
      "åŀĥåľ": 4679,
      "åŀĥåľ¾": 4680,
      "Ġbased": 4681,
      "Ġä¸Ģä¸ª": 4682,
      "åŃ¤çĭ¬": 4683,
      "åĵªéĩĮ": 4684,
      "Ġdivided": 4685,
      "å¥³åŃ©": 4686,
      "ĠæĪĳ": 4687,
      "åĵ¥": 4688,
      "ĠBe": 4689,
      "fa": 4690,
      "ĠMay": 4691,
      "ially": 4692,
      "åĨ»": 4693,
      "ense": 4694,
      "è¯ŃéŁ³": 4695,
      "Ġentry": 4696,
      "95": 4697,
      "åĲ¹": 4698,
      "å©ļ": 4699,
      "åľ°æĸ¹": 4700,
      "Ġcontinu": 4701,
      "ĠIs": 4702,
      "çĶŁæķĪ": 4703,
      "br": 4704,
      "é«ĺåº¦": 4705,
      "æļ´": 4706,
      "åıĳå¸ĥ": 4707,
      "ãĤ": 4708,
      "Ġlit": 4709,
      "éĢīå®ļ": 4710,
      "Ġgrade": 4711,
      "è¿ĶåĽŀ": 4712,
      "å¤ªéĺ³ç³»": 4713,
      "åŃĲçļĦ": 4714,
      "çº¯": 4715,
      "Ġtoo": 4716,
      "åĪĨæĪĲ": 4717,
      "çī¹å®ļ": 4718,
      "ĠBritish": 4719,
      "çĮľæµĭ": 4720,
      "iving": 4721,
      "æĬĹ": 4722,
      "æĿ¥èĩª": 4723,
      "æĮĩåĩº": 4724,
      "ĠCar": 4725,
      "çİ°å®ŀ": 4726,
      "Ġlast": 4727,
      "Ġnote": 4728,
      "çļĦæĸ¹å¼ı": 4729,
      "uin": 4730,
      "eted": 4731,
      "Ġmissing": 4732,
      "alk": 4733,
      "åıĳç¥¨": 4734,
      "ä¹ĺä»¥": 4735,
      "è®ºæĸĩ": 4736,
      "çļĦæ®µèĲ½": 4737,
      "ç¬¬ä¸Ģä¸ª": 4738,
      "è½»æĿ¾": 4739,
      "çĽ¸åħ³çļĦ": 4740,
      "Ġwebhook": 4741,
      "ç¼ºå¤±": 4742,
      "çĽ¸éĤ»": 4743,
      "éª¨": 4744,
      "åºĶçĶ¨ç¨ĭåºı": 4745,
      "æĲħæĭĮ": 4746,
      "çļĦæĦıæĢĿ": 4747,
      "çİĽ": 4748,
      "Ġmajor": 4749,
      "Ġ33": 4750,
      "çļĦéĻĲ": 4751,
      "ä»İä»¥ä¸ĭ": 4752,
      "ively": 4753,
      "çļĦæıı": 4754,
      "ides": 4755,
      "æĸ¹ä¾¿": 4756,
      "çĽ´æİ¥": 4757,
      "æµ·æ´ĭ": 4758,
      "è§Ĩè§ī": 4759,
      "åĲĮæŃ¥": 4760,
      "Ġshort": 4761,
      "ç§ĳåŃ¦å®¶": 4762,
      "æľīåĬ©äºİ": 4763,
      "Ġcur": 4764,
      "à¦": 4765,
      "æīĢå±ŀ": 4766,
      "èģĮä¸ļ": 4767,
      "åĢĻéĢī": 4768,
      "Ġhandling": 4769,
      "Ġdue": 4770,
      "èļ": 4771,
      "Ch": 4772,
      "æ°´å¹³": 4773,
      "Ð°": 4774,
      "Ġfamily": 4775,
      "çļĦçłĶç©¶": 4776,
      "åı¯ä»¥è¢«": 4777,
      "val": 4778,
      "æ³°": 4779,
      "åİĺç±³": 4780,
      "ä¸īè§Ĵ": 4781,
      "Ġreturns": 4782,
      "zy": 4783,
      "ç¢³": 4784,
      "payment": 4785,
      "æĬ«èĲ¨": 4786,
      "88": 4787,
      "Ġright": 4788,
      "ä½įæĺ¯": 4789,
      "æĹ©ä¸Ĭ": 4790,
      "ä¸Ģæ¬¾": 4791,
      "èĤĮ": 4792,
      "æī¾åĩº": 4793,
      "èİ·åıĸ": 4794,
      "æĦŁåıĹåĪ°": 4795,
      "çĶ·çĶŁ": 4796,
      "å¹³è¡¡": 4797,
      "uplic": 4798,
      "è¡¨æł¼": 4799,
      "ball": 4800,
      "67": 4801,
      "bound": 4802,
      "åģ¶": 4803,
      "ently": 4804,
      "åĿĢ": 4805,
      "å¡«": 4806,
      "æıĲåĩº": 4807,
      "è¿Ľåħ¥": 4808,
      "lished": 4809,
      "çĴ": 4810,
      "äºĶä¸ª": 4811,
      "ç¾İä¸½çļĦ": 4812,
      "é»ĳæ´ŀ": 4813,
      "æį·": 4814,
      "åı¤è¯Ĺ": 4815,
      "Ġcle": 4816,
      "çŃ¾": 4817,
      "endment": 4818,
      "ï¼ŁâĢĿ": 4819,
      "Ġobjects": 4820,
      "Ġexecution": 4821,
      "çĶ°": 4822,
      "å¥½æĹ¶": 4823,
      "ends": 4824,
      "æı¡": 4825,
      "çļĦæ¯Ķ": 4826,
      "åĮĸçļĦ": 4827,
      "æĶ¾åľ¨": 4828,
      "çĩĥ": 4829,
      "Ġlearning": 4830,
      "çĶŁæĹ¥": 4831,
      "éĴ¢": 4832,
      "Ġold": 4833,
      "2022": 4834,
      "Ġrating": 4835,
      "åı¯æĮģç»Ń": 4836,
      "æī¹åĩĨæ¦Ĥçİĩ": 4837,
      "Ġtem": 4838,
      "ä¸ľè¥¿": 4839,
      "Ġcare": 4840,
      "æ³ķå¾ĭ": 4841,
      "è°Ī": 4842,
      "éĻĪè¿°": 4843,
      "Ġtied": 4844,
      "æĥ¯": 4845,
      "é»Ħèī²": 4846,
      "çļĦçģ": 4847,
      "åħ·ä½ĵçļĦ": 4848,
      "Ġoffic": 4849,
      "\",": 4850,
      "ike": 4851,
      "æĸĩæľ¬ä¸ŃçļĦ": 4852,
      ".ãĢĬ": 4853,
      "Ġgate": 4854,
      "å±ķç¤º": 4855,
      "çİ°è±¡": 4856,
      "çļĦæĻ¯": 4857,
      "Ġoften": 4858,
      "Ġfind": 4859,
      "å¥ĭ": 4860,
      "ert": 4861,
      "çĪ¬": 4862,
      "æ·±åħ¥": 4863,
      "iety": 4864,
      "imately": 4865,
      "Ġduplic": 4866,
      "æĪ·å¤ĸ": 4867,
      "Ġsentence": 4868,
      "Ġprovide": 4869,
      "Ġdrawn": 4870,
      "å®ľ": 4871,
      "ãĥ": 4872,
      "çļĦåĨħéĥ¨": 4873,
      "å°į": 4874,
      "ä»İä¸į": 4875,
      "Ġbusiness": 4876,
      "Ġlegacy": 4877,
      "æĿĳ": 4878,
      "æĢ»æĺ¯": 4879,
      "Ġfalse": 4880,
      "çĤİ": 4881,
      "Ġtri": 4882,
      "èľĤ": 4883,
      "Ġhead": 4884,
      "èĪ¹": 4885,
      "ä¹¡": 4886,
      "æıĲåĪ°": 4887,
      "æ°ı": 4888,
      "ĠIf": 4889,
      "Ġsensitivity": 4890,
      "Ġrelease": 4891,
      "str": 4892,
      "å®ŀéªĮ": 4893,
      "çµ": 4894,
      "äº¤æµģ": 4895,
      "çķªèĮĦ": 4896,
      "Ġbrown": 4897,
      "é¡µ": 4898,
      "Ġservice": 4899,
      "usive": 4900,
      "Ġcour": 4901,
      "Ġtook": 4902,
      "é»ĺ": 4903,
      "zen": 4904,
      "å°Ĩå®ĥä»¬": 4905,
      "ĠCol": 4906,
      "ç¿»è¯ĳæĪĲèĭ±æĸĩ": 4907,
      "Ġfunction": 4908,
      "åĽ°éļ¾": 4909,
      "èĥ½éĩı": 4910,
      "Ġsync": 4911,
      "æª": 4912,
      "esc": 4913,
      "essing": 4914,
      "æķ´æķ°": 4915,
      "Ġdest": 4916,
      "part": 4917,
      "Ġlight": 4918,
      "éĢĲæ¸Ĳ": 4919,
      "åĪ¶å®ļ": 4920,
      "ä¾Ŀæ¬¡ä¸º": 4921,
      "Ġduplicate": 4922,
      "ording": 4923,
      "å¼Ĥå¸¸æĮĩæķ°": 4924,
      "Ġrequester": 4925,
      "åİĨåı²è®°å½ķ": 4926,
      "æĬķèµĦ": 4927,
      "åĨĻä½ľ": 4928,
      "åĨĻä¸Ģä¸ª": 4929,
      "éĢĤåºĶ": 4930,
      "å·¦åı³": 4931,
      "å¢ŀéķ¿": 4932,
      "çļĦå¾ħ": 4933,
      "Ġappear": 4934,
      "Ġevent": 4935,
      "éģį": 4936,
      "Ġadjust": 4937,
      "Ġuniformly": 4938,
      "åŃ¸": 4939,
      "be": 4940,
      "å¼¹": 4941,
      "è½½": 4942,
      "éĿŀå¸¸å¥½": 4943,
      "Ġamendment": 4944,
      "è¿ŀæİ¥": 4945,
      "44": 4946,
      "è¶³å¤Ł": 4947,
      "åĲ¯": 4948,
      "åĽ½éĻħ": 4949,
      "ĠAll": 4950,
      "éĢ»": 4951,
      "Ġclause": 4952,
      "åĿı": 4953,
      "ä¸ĢåĲį": 4954,
      "ä¸įè¿ĩ": 4955,
      "iscal": 4956,
      "çļĦè¯ĹæŃĮ": 4957,
      "Ġkey": 4958,
      "Ġnightly": 4959,
      "Ġfalls": 4960,
      "Ġcamp": 4961,
      "Ġbilled": 4962,
      "Ġhandle": 4963,
      "æĺ¥å¤©": 4964,
      "ç¼ĸåĨĻä¸Ģä¸ª": 4965,
      "hist": 4966,
      "Ġschool": 4967,
      "ä¸»äºº": 4968,
      "åĽ¾åĥı": 4969,
      "åıĺæĽ´": 4970,
      "æĦıåĳ³": 4971,
      "Ġknow": 4972,
      "åħĶ": 4973,
      "Ġfiscal": 4974,
      "Ġkm": 4975,
      "Ġdem": 4976,
      "Ġtrack": 4977,
      "Ġattack": 4978,
      "det": 4979,
      "é£ŁæĿĲ": 4980,
      "çļĦçĶŁæ´»": 4981,
      "Ġpot": 4982,
      "æĻ´": 4983,
      "ï¼ļ```": 4984,
      "è¯Ńè¨Ģæ¨¡åŀĭ": 4985,
      "æľ¬æĸĩ": 4986,
      "æĪ¿éĹ´": 4987,
      "NA": 4988,
      "æĿ°": 4989,
      "èī²å½©": 4990,
      "Ġä¸¤ä¸ª": 4991,
      "æĻ¯çĤ¹": 4992,
      "æľīè¶£çļĦ": 4993,
      "Ġeas": 4994,
      "Ġcentury": 4995,
      "çªĹ": 4996,
      "æ¾": 4997,
      "ĊĠĠĠ": 4998,
      "æķ´ä½ĵä¸Ĭ": 4999,
      "Ġ#": 5000,
      "ä¾Ĩ": 5001,
      "ä½łéľĢè¦ģ": 5002,
      "Ġplat": 5003,
      "åģĩè®¾": 5004,
      "çĽ¸äºĴ": 5005,
      "é©¾é©¶": 5006,
      "éªĳ": 5007,
      "This": 5008,
      ");": 5009,
      "å®ģ": 5010,
      "Ġjum": 5011,
      "ä¸ĭçļĦä¸Ģä¸ª": 5012,
      "Ġinvol": 5013,
      "è¿Ļå®¶": 5014,
      "åĳ¨åĽ´": 5015,
      "æĭį": 5016,
      "éº»": 5017,
      "orders": 5018,
      "è¯Ħä¸º": 5019,
      "å®Įåħ¨": 5020,
      "æĺİç¡®": 5021,
      "ĠMar": 5022,
      "å¯¹åºĶåĵªä¸ªå·¥åħ·": 5023,
      "Ġann": 5024,
      "æµ®åĬ¨": 5025,
      "account": 5026,
      "Ġbuck": 5027,
      "è¿½æ±Ĥ": 5028,
      "èĸĦ": 5029,
      "è½¬æį¢ä¸º": 5030,
      "è³": 5031,
      "Ġä½į": 5032,
      "ä¸Ģä¸ªäºº": 5033,
      "äºĪ": 5034,
      "ç¬¬ä¸ī": 5035,
      "ĠåĲĮä¸Ģ": 5036,
      "ç»ķ": 5037,
      "å¤ĦçĲĨèĥ½åĬĽ": 5038,
      "gin": 5039,
      "ç»Ħä¸ĭçļĦä¸Ģä¸ª": 5040,
      "åºĶè¯¥æī§è¡Į": 5041,
      "ugust": 5042,
      "æĹłåħ³è´¦æĪ·": 5043,
      "è´¦åįķç»Ħä¸ĭçļĦä¸Ģä¸ª": 5044,
      "ĠåĲĮä¸Ģè´¦åįķç»Ħä¸ĭçļĦä¸Ģä¸ª": 5045,
      "ĠåĲĮä¸Ģè´¦åįķç»Ħä¸ĭçļĦä¸Ģä¸ªæĹłåħ³è´¦æĪ·": 5046,
      "å¤§èĩªçĦ¶": 5047,
      "by": 5048,
      "éľĩ": 5049,
      "Ġfro": 5050,
      "åľ£": 5051,
      "æĤ¨éľĢè¦ģ": 5052,
      "Ġä¸ĢæĿ¡": 5053,
      "çĽ®çļĦåľ°": 5054,
      "ç»Ļåĩºé£İéĻ©åĪĨ": 5055,
      "éļľ": 5056,
      "æ£®æŀĹ": 5057,
      "Ġline": 5058,
      "Ġdetection": 5059,
      "Ġä»ħ": 5060,
      "çļĦä»·æł¼": 5061,
      "ç§°ä¸º": 5062,
      "Ġfold": 5063,
      "çĭ¬ç«ĭ": 5064,
      "Ġsandbox": 5065,
      "çĽ¸éĤ»ä¸¤": 5066,
      "è¹": 5067,
      "æĽ´å¥½çļĦ": 5068,
      "Ġsom": 5069,
      "å¿Ļ": 5070,
      "mp": 5071,
      "å§ĵ": 5072,
      "successful": 5073,
      "Ġlanguage": 5074,
      "æĺ¯åĵªä¸ª": 5075,
      "ç»ĵåĲĪ": 5076,
      "æĦıæĢĿ": 5077,
      "çĶ±è°ģ": 5078,
      "æ·±åº¦åŃ¦ä¹ł": 5079,
      "æ¡¶": 5080,
      "for": 5081,
      "ĠHowever": 5082,
      "åĬłä¸Ĭ": 5083,
      "Ġä¸Ģé¡¹": 5084,
      "self": 5085,
      "ape": 5086,
      "æĹ§çīĪ": 5087,
      "Ġsince": 5088,
      "ä¸ĸçºª": 5089,
      "ĠSept": 5090,
      "çļĦæ£Ģ": 5091,
      "çĭ¬çī¹çļĦ": 5092,
      "Ġintact": 5093,
      "æľªæĮĩå®ļ": 5094,
      "éĢ»è¾ĳ": 5095,
      "Ver": 5096,
      "å¯¹ä¸Ĭ": 5097,
      "çļĦéĹ¨æ§Ľ": 5098,
      "çĽ¸åĬł": 5099,
      "Ġå®½æĿ¾": 5100,
      "fun": 5101,
      "çļĦå»ºè®®": 5102,
      "æĸ°é²ľ": 5103,
      "Ġcomplement": 5104,
      "Ġä»ħéĢĤçĶ¨äºİ": 5105,
      "æİ¥åı£çļĦéĻĲ": 5106,
      "æĹ§çīĪæİ¥åı£çļĦéĻĲ": 5107,
      "Ġä»ħéĢĤçĶ¨äºİæĹ§çīĪæİ¥åı£çļĦéĻĲ": 5108,
      "Ġä»ħéĢĤçĶ¨äºİæĹ§çīĪæİ¥åı£çļĦéĻĲæµģ": 5109,
      "Ġå¤ľéĹ´": 5110,
      "æ¨¡å¼ı": 5111,
      "ç¾İå¥½çļĦ": 5112,
      "åľ¨å®¶": 5113,
      "è¯ĦåĪĨè§ĦåĪĻ": 5114,
      "Ġè¿Ŀè§Ħ": 5115,
      "Ġéĩįè¯ķ": 5116,
      "Ġå¤±è´¥æŃ¥æķ°": 5117,
      "Ġbatt": 5118,
      "åľ¨éĹ¨æ§Ľ": 5119,
      "Ġweighted": 5120,
      "æµ·æ»©": 5121,
      "æī§è¡Įä½ĵ": 5122,
      "æī§è¡ĮåİĨåı²": 5123,
      "ä¹ĭéĹ´åį³åıĸ": 5124,
      "éĹ¨æ§Ľä¹ĭéĹ´åį³åıĸ": 5125,
      "è¯Ħå®¡æŀĦæĪĲ": 5126,
      "è¯Ħå®¡çļĦéĹ¨æ§Ľ": 5127,
      "è¯Ħå®¡åľ¨éĹ¨æ§Ľ": 5128,
      "èĲ½åľ¨çĽ¸éĤ»ä¸¤": 5129,
      "ä¸¥æł¼è¯Ħå®¡çļĦéĹ¨æ§Ľ": 5130,
      "ĠåĪĨçļĦéļıæľº": 5131,
      "è¯Ħå®ļæľªæĮĩå®ļ": 5132,
      "è´¨éĩıåĪĨèĲ½åľ¨çĽ¸éĤ»ä¸¤": 5133,
      "æľ¬æ¬¡çĶ±è°ģ": 5134,
      "éĻĦè¿ĳçļĦåĪ¤å®ļ": 5135,
      "åįķä¸ªè¯Ħå®¡åľ¨éĹ¨æ§Ľ": 5136,
      "çŃīçº§éĹ¨æ§Ľä¾Ŀæ¬¡ä¸º": 5137,
      "éĤ£ä¸Ģæ¡£": 5138,
      "è¾ĥé«ĺçļĦéĤ£ä¸Ģæ¡£": 5139,
      "æķ´ä½ĵä¸Ĭç§»": 5140,
      "Ġè¿Ŀè§Ħæ¬¡æķ°": 5141,
      "Ġéĩįè¯ķæ¬¡æķ°": 5142,
      "éĹ¨æ§Ľä¹ĭéĹ´åį³åıĸè¾ĥé«ĺçļĦéĤ£ä¸Ģæ¡£": 5143,
      "ä¸¥æł¼è¯Ħå®¡çļĦéĹ¨æ§Ľæķ´ä½ĵä¸Ĭç§»": 5144,
      "ĠåĪĨçļĦéļıæľºæµ®åĬ¨": 5145,
      "è´¨éĩıåĪĨèĲ½åľ¨çĽ¸éĤ»ä¸¤éĹ¨æ§Ľä¹ĭéĹ´åį³åıĸè¾ĥé«ĺçļĦéĤ£ä¸Ģæ¡£": 5146,
      "æľ¬æ¬¡çĶ±è°ģè¯Ħå®ļæľªæĮĩå®ļ": 5147,
      "éĻĦè¿ĳçļĦåĪ¤å®ļåŃĺåľ¨": 5148,
      "åįķä¸ªè¯Ħå®¡åľ¨éĹ¨æ§ĽéĻĦè¿ĳçļĦåĪ¤å®ļåŃĺåľ¨": 5149,
      "ä¸Ńå·²": 5150,
      "äº§çĶŁçļĦä¸ĢæĿ¡": 5151,
      "éĩįå¤įè®°å½ķ": 5152,
      "åĲĮæŃ¥äº§çĶŁçļĦä¸ĢæĿ¡": 5153,
      "Ġå¤ľéĹ´åĲĮæŃ¥äº§çĶŁçļĦä¸ĢæĿ¡": 5154,
      "Ġå¤ľéĹ´åĲĮæŃ¥äº§çĶŁçļĦä¸ĢæĿ¡éĩįå¤įè®°å½ķ": 5155,
      "Ġ21": 5156,
      "Ġsix": 5157,
      "Ġassessor": 5158,
      "èįīèİĵ": 5159,
      "Ġmarg": 5160,
      "ä¸İè¯·æ±Ĥ": 5161,
      "Ġsecurity": 5162,
      "æĹłåħ³çļĦåĨħéĥ¨": 5163,
      "å¼ĥæĿĥ": 5164,
      "Ġä¸ĢæĿ¡ä¸İè¯·æ±Ĥ": 5165,
      "æĹłåħ³çļĦåĨħéĥ¨å¤ĩæ³¨": 5166,
      "Ġä¸ĢæĿ¡ä¸İè¯·æ±ĤæĹłåħ³çļĦåĨħéĥ¨å¤ĩæ³¨": 5167,
      "ourn": 5168,
      "çļĦæĭ": 5169,
      "åħ¶æ¬¡": 5170,
      "çĬ¯": 5171,
      "ĠåĪĻ": 5172,
      "æĢĿæĥ³": 5173,
      "æ¡£ä½įæĺ¯": 5174,
      "å¡ĳ": 5175,
      "è´¢å¹´": 5176,
      "oes": 5177,
      "è£Ļ": 5178,
      "ä¿®æŃ£æ¡Ī": 5179,
      "çļĦå¾ħå®ļ": 5180,
      "èİ·æī¹çļĦå¾ħå®ļ": 5181,
      "ä»İæľªèİ·æī¹çļĦå¾ħå®ļ": 5182,
      "Ġä¸Ģé¡¹ä»İæľªèİ·æī¹çļĦå¾ħå®ļ": 5183,
      "ĠSeptember": 5184,
      "Ġä¸Ģé¡¹ä»İæľªèİ·æī¹çļĦå¾ħå®ļåıĺæĽ´": 5185,
      "fr": 5186,
      "embers": 5187,
      "åİŁå§ĭ": 5188,
      "oard": 5189,
      "æĦıåĳ³çĿĢ": 5190,
      "ĠAugust": 5191,
      "ä¹¦ç±į": 5192,
      "ç»¼": 5193,
      "Ġpat": 5194,
      "Ġfact": 5195,
      "Ġwon": 5196,
      "istorical": 5197,
      "85": 5198,
      "çļĦåįķè¯į": 5199,
      "da": 5200,
      "Ġåı·": 5201,
      "çļĦç³ĸæŀľ": 5202,
      "åıĸæ¶Ī": 5203,
      "æ·±åĪ»": 5204,
      "Ġlarg": 5205,
      "gor": 5206,
      "ä¼ĺåĮĸ": 5207,
      "84": 5208,
      "ĠGerm": 5209,
      "æİĴæľŁ": 5210,
      "hern": 5211,
      "è¯ĬæĸŃ": 5212,
      "ä¸»è¯Ń": 5213,
      "åĲĦéĥ¨éĹ¨": 5214,
      "çļĦæĬĢæľ¯": 5215,
      "Ġmonth": 5216,
      "à¥": 5217,
      "Ġminutes": 5218,
      "æĢ¥": 5219,
      "me": 5220,
      "åĬłå¼º": 5221,
      "ä¹ĭåīįçļĦä¸ĢæĿ¡": 5222,
      "Ġä¸¤ä¸ªè´¢å¹´": 5223,
      "ä¹ĭåīįçļĦä¸ĢæĿ¡åİĨåı²è®°å½ķ": 5224,
      "Ġä¸¤ä¸ªè´¢å¹´ä¹ĭåīįçļĦä¸ĢæĿ¡åİĨåı²è®°å½ķ": 5225,
      "æĪĳéľĢè¦ģ": 5226,
      "å¥³æĢ§": 5227,
      "uinely": 5228,
      "Ġgenuinely": 5229,
      "æ·¡": 5230,
      "Ġchild": 5231,
      "æĺ¾ç¤º": 5232,
      "Ġmaking": 5233,
      "åħģ": 5234,
      "Ð¾": 5235,
      "sub": 5236,
      "è¾¾åĪ°": 5237,
      "Ġworkspace": 5238,
      "Des": 5239,
      "çļĦæ²Ļç®±": 5240,
      "read": 5241,
      "è®¡è´¹çļĦæ²Ļç®±": 5242,
      "Ġä¸Ģä¸ªä»İä¸į": 5243,
      "è®¡è´¹çļĦæ²Ļç®±ç§ŁæĪ·": 5244,
      "Ġä¸Ģä¸ªä»İä¸įè®¡è´¹çļĦæ²Ļç®±ç§ŁæĪ·": 5245,
      "false": 5246,
      "work": 5247,
      "ĠAustral": 5248,
      "Ġthose": 5249,
      "Ġide": 5250,
      "Ġnow": 5251,
      "ĠCan": 5252,
      "éĥģ": 5253,
      "æ¼Ķåĳĺ": 5254,
      "Ġguessing": 5255,
      "Ġpositional": 5256,
      "ãĢģâĢľ": 5257,
      "Ġdefective": 5258,
      "Ġve": 5259,
      "è½¬ç§»": 5260,
      "Ġpayment": 5261,
      "viron": 5262,
      "å´": 5263,
      "éĿ©": 5264,
      "æľīåĵªäºĽ": 5265,
      "ŁçļĦæĿ¡æ¬¾": 5266,
      "ä½ľåºŁçļĦæĿ¡æ¬¾": 5267,
      "Ġbucketed": 5268,
      "ä¸Ńå·²ä½ľåºŁçļĦæĿ¡æ¬¾": 5269,
      "ä¿®æŃ£æ¡Īä¸Ńå·²ä½ľåºŁçļĦæĿ¡æ¬¾": 5270,
      "Ġåı·ä¿®æŃ£æ¡Īä¸Ńå·²ä½ľåºŁçļĦæĿ¡æ¬¾": 5271,
      "Ġ42": 5272,
      "ç«ŀ": 5273,
      "Ġexample": 5274,
      "åī©ä½Ļå¤ĦçĲĨèĥ½åĬĽ": 5275,
      "åĲĦéĥ¨éĹ¨åī©ä½Ļå¤ĦçĲĨèĥ½åĬĽ": 5276,
      "å®¾": 5277,
      "Ġtext": 5278,
      "ä»Ķ": 5279,
      "aut": 5280,
      "Ġsuspended": 5281,
      "Ġtre": 5282,
      "åĵªä¸ªçŃīçº§": 5283,
      "Ġcomput": 5284,
      "å®ŀä½ĵ": 5285,
      "åĢĴåħ¥": 5286,
      "çĥŁ": 5287,
      "è´¢åĬ¡": 5288,
      "detection": 5289,
      "å½ĵæĹ¥": 5290,
      "é¢ĦæĬ¥": 5291,
      "éŃĶæ³ķ": 5292,
      "Verification": 5293,
      "èĤ¯": 5294,
      "Ġchang": 5295,
      "Inbound": 5296,
      "çļĦæııè¿°": 5297,
      "ä¸įä½ľ": 5298,
      "åĪĨä¸º": 5299,
      "ĠYork": 5300,
      "ä¸Ģå¾ĭ": 5301,
      "å¤§å°ı": 5302,
      "èĦ±": 5303,
      "æĶ»": 5304,
      "å®ĥæĺ¯": 5305,
      "Ġcompany": 5306,
      "åı¯èĥ½æĺ¯": 5307,
      "inc": 5308,
      "åķĨä¸ļ": 5309,
      "æĹ¥å¸¸": 5310,
      "stand": 5311,
      "Ġbelie": 5312,
      "Ġanother": 5313,
      "èĩªè¡Į": 5314,
      "çĲĨè®º": 5315,
      "ç¡¬": 5316,
      "Ġfew": 5317,
      "å·¥åħ·æĹ¶": 5318,
      "Ġå¯¹è±¡": 5319,
      "Ġgovernment": 5320,
      "éĢĴ": 5321,
      "Ġleft": 5322,
      "Ġ22": 5323,
      "ä¹łæĥ¯": 5324,
      "åĨł": 5325,
      "raph": 5326,
      "æĹ¶æĮī": 5327,
      "49": 5328,
      "æľĢé«ĺ": 5329,
      "ç¡®è®¤": 5330,
      "Ġreceived": 5331,
      "æģ¶": 5332,
      "Historical": 5333,
      "è¥¿çıŃ": 5334,
      "è¯º": 5335,
      "è¥¿çıŃçīĻ": 5336,
      "Ġ27": 5337,
      "åĲĮçŃī": 5338,
      "èģĶåĲĪæ¦Ĥçİĩ": 5339,
      "ç¤¾äº¤åªĴä½ĵ": 5340,
      "è¦ģæī§è¡Į": 5341,
      "å½Ĵæ¡£": 5342,
      "Ġdiffering": 5343,
      "ances": 5344,
      "åĢį": 5345,
      "31": 5346,
      "èĲ¥éĶĢ": 5347,
      "éĢīçĶ¨å·¥åħ·æĹ¶": 5348,
      "çĽ®æłĩå¯¹è±¡éĥ½è¦ģ": 5349,
      "åĬ¨ä½ľä¸İçĽ®æłĩå¯¹è±¡éĥ½è¦ģ": 5350,
      "æľªæĮĩæĺİå¯¹è±¡çļĦæĥħåĨµä¸ĭ": 5351,
      "åĬ¨ä½ľçĽ¸ç¬¦çļĦå·¥åħ·ä¸Ģå¾ĭ": 5352,
      "åĩ¡åĬ¨ä½ľçĽ¸ç¬¦çļĦå·¥åħ·ä¸Ģå¾ĭ": 5353,
      "åĬ¨ä½ľä¸İçĽ®æłĩå¯¹è±¡éĥ½è¦ģå¯¹ä¸Ĭ": 5354,
      "åĩ¡åĬ¨ä½ľçĽ¸ç¬¦çļĦå·¥åħ·ä¸Ģå¾ĭåĲĮæł·æľīæķĪ": 5355,
      "éĢĤéĩı": 5356,
      "ç»ıè¿ĩ": 5357,
      "åħ«": 5358,
      "æĪĲéķ¿": 5359,
      "æ³ķåĽ½": 5360,
      "ming": 5361,
      "ulation": 5362,
      "çĶµè¯Ŀ": 5363,
      "çŃīçº§ä¸º": 5364,
      "let": 5365,
      "éģĵå¾·": 5366,
      "ä½łå¥½": 5367,
      "æ¶Īè´¹": 5368,
      "çļĦå¤Ħ": 5369,
      "åıĸå¹¶åĪĹ": 5370,
      "å¯¹è±¡ç¼ºå¤±": 5371,
      "åĬ¨ä½ľåıĸå¹¶åĪĹ": 5372,
      "è·¯çĶ±ä¾Ŀæį®": 5373,
      "ä¸įä½ľçĮľæµĭ": 5374,
      "æĹ¶æĮīåĬ¨ä½ľåıĸå¹¶åĪĹ": 5375,
      "å¯¹è±¡ç¼ºå¤±æĹ¶æĮīåĬ¨ä½ľåıĸå¹¶åĪĹ": 5376,
      "å¯¹è±¡ç¼ºå¤±æĹ¶æĮīåĬ¨ä½ľåıĸå¹¶åĪĹéĽĨ": 5377,
      "çĽ¸åĲĮåĪĻ": 5378,
      "Ġcomplements": 5379,
      "69": 5380,
      "sh": 5381,
      "è¦ģæī§è¡ĮçļĦæĵįä½ľ": 5382,
      "aff": 5383,
      "çİ°åľ¨è¯·ä½ł": 5384,
      "Ġä¸İ": 5385,
      "ä¸įçŁ¥éģĵ": 5386,
      "Ġterm": 5387,
      "ä½ľä¸ļ": 5388,
      "åħģè®¸": 5389,
      "æ´Ľ": 5390,
      "çĽ¸ä¹ĺ": 5391,
      "âĢĶâĢĶ": 5392,
      "ç¾İçļĦ": 5393,
      "audit": 5394,
      "Ġlove": 5395,
      "äº¤æĺĵ": 5396,
      "æ¦ĤçİĩçĽ¸åĲĮ": 5397,
      "è¯¥æĹ¶åĪ»": 5398,
      "åħ¶å½ĵæĹ¥": 5399,
      "åĲĦä¸İä¼ļèĢħåľ¨è¯¥æĹ¶æ®µçļĦæĿĥéĩį": 5400,
      "æĿĥéĩįçĽ¸åĲĮåĪĻ": 5401,
      "æĹ¶æ®µæĮī": 5402,
      "åĮºæ®µçļĦæĿĥéĩį": 5403,
      "åĮºæ®µåĪĴåĪĨ": 5404,
      "åĬłæĿĥéļıæľºéĢīå®ļ": 5405,
      "æīĢå±ŀåĮºæ®µçļĦæĿĥéĩį": 5406,
      "åĢĻéĢīæĹ¶æ®µ": 5407,
      "è¯¥æĹ¶åĪ»æīĢå±ŀåĮºæ®µçļĦæĿĥéĩį": 5408,
      "åħ¶å½ĵæĹ¥æĿĥéĩį": 5409,
      "æĿĥéĩįçĽ¸åĲĮåĪĻæ¦ĤçİĩçĽ¸åĲĮ": 5410,
      "usage": 5411,
      "åĩºçİĩ": 5412,
      "ä¸įç¬¦": 5413,
      "æ¯«": 5414,
      "email": 5415,
      "æĶ¾è¡Į": 5416,
      "èĻ«": 5417,
      "ĠBands": 5418,
      "è£ħé¥°": 5419,
      "åł¡": 5420,
      "çĪ½": 5421,
      "icle": 5422,
      "è´¦æĪ·çĬ¶æĢģä¸º": 5423,
      "æ·ĭ": 5424,
      "Ġproblem": 5425,
      "Requester": 5426,
      "balance": 5427,
      "åı¹": 5428,
      "Merchant": 5429,
      "Ġelect": 5430,
      "Ġvers": 5431,
      "æīĭç»Ń": 5432,
      "87": 5433,
      "atural": 5434,
      "è¯¯æĬ¥çİĩ": 5435,
      "Ġdisputed": 5436,
      "notes": 5437,
      "Ġà¤": 5438,
      "Ġmag": 5439,
      "æĪĲåĳĺ": 5440,
      "åīĤ": 5441,
      "å¹³åĿĩåĢ¼": 5442,
      "åºĶè¯¥æĺ¯": 5443,
      "Ġwant": 5444,
      "ĠSlots": 5445,
      "è¯¥çŃīçº§": 5446,
      "çĶ¨æĪ·è¦ģæ±Ĥ": 5447,
      "Ġspecies": 5448,
      "çļĦåİĨåı²èµĶä»ĺçİĩ": 5449,
      "è¯¥çŃīçº§çļĦåİĨåı²èµĶä»ĺçİĩ": 5450,
      "æ£Ģåĩºçİĩ": 5451,
      "èĢħè¡¥æķ°": 5452,
      "åĲİéªĮèĥľç®Ĺ": 5453,
      "åİĨåı²èµĶä»ĺçİĩ": 5454,
      "èµĶä»ĺçİĩéĻ¤ä»¥": 5455,
      "èĢħè¡¥æķ°ä¹ĭæ¯Ķ": 5456,
      "Tool": 5457,
      "Ġtoler": 5458,
      "members": 5459,
      "pol": 5460,
      "ĠTe": 5461,
      "\"ï¼Į": 5462,
      "ware": 5463,
      "èģĶåĲĪæĿĥéĩį": 5464,
      "å±ķçİ°": 5465,
      "è¯Ńåı¥": 5466,
      "å¾ĹäºĨ": 5467,
      "éĩĮçļĦ": 5468,
      "æįŁçļĦ": 5469,
      "æīĢæľīä¸İ": 5470,
      "osition": 5471,
      "æıĲåıĸåĩº": 5472,
      "ä»įçĦ¶": 5473,
      "èĳ¡èĲ": 5474,
      "èĳ¡èĲĦ": 5475,
      "åıĺæĪĲ": 5476,
      "åĳĪçİ°": 5477,
      "æļĤåģľ": 5478,
      "ç¾Ĭ": 5479,
      "åŁ¹": 5480,
      "åı¯çĪ±": 5481,
      "oman": 5482,
      "å°Ĩä¼ļ": 5483,
      "Ġapplic": 5484,
      "æ½ľ": 5485,
      "Ġnorth": 5486,
      "å°ıçĭĹ": 5487,
      "ilt": 5488,
      "å¤§éĩı": 5489,
      "ĠJu": 5490,
      "webhooks": 5491,
      "è¯·æ±ĤåĬ¨ä½ľ": 5492,
      "Ġmargin": 5493,
      "39": 5494,
      "è¯·ç»ĻæĪĳ": 5495,
      "invoices": 5496,
      "èĴľ": 5497,
      "Ġauthor": 5498,
      "åıĤä¸İ": 5499,
      "profile": 5500,
      "è¡¨è¾¾äºĨ": 5501,
      "ä¸ªæĢ§": 5502,
      "ç»Ļä½ł": 5503,
      "åº¦åĴĮ": 5504,
      "æľīç¼º": 5505,
      "ä»»ä¸Ģ": 5506,
      "subscription": 5507,
      "çļĦå¤Ħç½®": 5508,
      "Ġattend": 5509,
      "address": 5510,
      "ources": 5511,
      "Ġinclusive": 5512,
      "Ġfrozen": 5513,
      "Ġstill": 5514,
      "åıĹçĲĨè¯·æ±Ĥ": 5515,
      "åĨ»ç»ĵ": 5516,
      "å¹ķ": 5517,
      "method": 5518,
      "åºĶå¯¹": 5519,
      "Ġcost": 5520,
      "æĮĩä»¤": 5521,
      "booking": 5522,
      "Ġlog": 5523,
      "åĲĮæĹ¶ä¸İ": 5524,
      "äººæ°ĳå¸ģ": 5525,
      "å°Ĩä»¥ä¸ĭåı¥åŃĲ": 5526,
      "Ġfees": 5527,
      "èıľåįķ": 5528,
      "å£®": 5529,
      "äºĴèģĶç½ĳ": 5530,
      "uck": 5531,
      "å¯¹è®¢åįķ": 5532,
      "rist": 5533,
      "éĽ·": 5534,
      "åĩºçİĩä¸º": 5535,
      "å¯¹ç¡®": 5536,
      "åĴĮåħ¶ä»ĸ": 5537,
      "è°ĵ": 5538,
      "å®Įå¥½æĹ¶": 5539,
      "åĳĪéĺ³æĢ§çļĦ": 5540,
      "çĻ¼": 5541,
      "è¯¥æł¸éªĮ": 5542,
      "è®¢åįķåĳĪéĺ³æĢ§": 5543,
      "è¯¯æĬ¥çİĩä¸º": 5544,
      "çļĦæ£Ģåĩºçİĩä¸º": 5545,
      "æįŁçļĦè®¢åįķåĳĪéĺ³æĢ§": 5546,
      "æľīç¼ºæįŁçļĦè®¢åįķåĳĪéĺ³æĢ§": 5547,
      "å¯¹è®¢åįķå®Įå¥½æĹ¶": 5548,
      "å¯¹ç¡®æľīç¼ºæįŁçļĦè®¢åįķåĳĪéĺ³æĢ§": 5549,
      "åĳĪéĺ³æĢ§çļĦè¯¯æĬ¥çİĩä¸º": 5550,
      "è¯¥æł¸éªĮå¯¹ç¡®æľīç¼ºæįŁçļĦè®¢åįķåĳĪéĺ³æĢ§": 5551,
      "å¯¹è®¢åįķå®Įå¥½æĹ¶åĳĪéĺ³æĢ§çļĦè¯¯æĬ¥çİĩä¸º": 5552,
      "è¯¥æł¸éªĮå¯¹ç¡®æľīç¼ºæįŁçļĦè®¢åįķåĳĪéĺ³æĢ§çļĦæ£Ģåĩºçİĩä¸º": 5553,
      "ĠPh": 5554,
      "æľĢæĸ°": 5555,
      "èĢħä¸įå¾Ĺ": 5556,
      "å·¥åħ·éĢīæĭ©": 5557,
      "è¿ĩæľŁ": 5558,
      "è©": 5559,
      "Ġissu": 5560,
      "è¿Ļæľ¬ä¹¦": 5561,
      "âĢĿãĢģâĢľ": 5562,
      "åĲįçĽ¸ç¬¦": 5563,
      "åĪĻæīĢæľīä¸İ": 5564,
      "å¯¹è±¡é¡»": 5565,
      "å·¥åħ·åĲįçĽ¸ç¬¦": 5566,
      "è¯·æ±ĤæľªæĮĩæĺİå¯¹è±¡": 5567,
      "ä¸¥éĩį": 5568,
      "èĭ¥è¯·æ±ĤæľªæĮĩæĺİå¯¹è±¡": 5569,
      "åĬ¨ä½ľä¸İå¯¹è±¡é¡»": 5570,
      "åĬ¨ä½ľçĽ¸ç¬¦çļĦå·¥åħ·åĲĮçŃī": 5571,
      "ä¸įç¬¦èĢħä¸įå¾Ĺ": 5572,
      "ä»»ä¸Ģä¸įç¬¦èĢħä¸įå¾Ĺ": 5573,
      "åĲĮæĹ¶ä¸İå·¥åħ·åĲįçĽ¸ç¬¦": 5574,
      "å·¥åħ·éĢīæĭ©è§ĦåĪĻ": 5575,
      "åĪĻæīĢæľīä¸İåĬ¨ä½ľçĽ¸ç¬¦çļĦå·¥åħ·åĲĮçŃī": 5576,
      "åĬ¨ä½ľä¸İå¯¹è±¡é¡»åĲĮæĹ¶ä¸İå·¥åħ·åĲįçĽ¸ç¬¦": 5577,
      "ä»»ä¸Ģä¸įç¬¦èĢħä¸įå¾ĹéĢīçĶ¨": 5578,
      "åĪĻæīĢæľīä¸İåĬ¨ä½ľçĽ¸ç¬¦çļĦå·¥åħ·åĲĮçŃīæľīæķĪ": 5579,
      "Ġ45": 5580,
      "Ġexpired": 5581,
      "æ°§åĮĸ": 5582,
      "æī©": 5583,
      "risk": 5584,
      "æĽ´æĸ°": 5585,
      "Ġthird": 5586,
      "èĢģå¸Ī": 5587,
      "ç¬¦åı·": 5588,
      "æ¦Ĥå¿µ": 5589,
      "Ðµ": 5590,
      "ison": 5591,
      "æī£": 5592,
      "ues": 5593,
      "Ġcome": 5594,
      "å°ıæĺİæīĭ": 5595,
      "çļĦç©": 5596,
      "çľŁæŃ£": 5597,
      "ĠUSD": 5598,
      "ees": 5599,
      "Ã¡": 5600,
      "Ġbecome": 5601,
      "history": 5602,
      "âĦ": 5603,
      "çĬ¶åĨµ": 5604,
      "ipp": 5605,
      "onds": 5606,
      "èĬĿ": 5607,
      "38": 5608,
      "è¿ª": 5609,
      "Ġben": 5610,
      "Ġ26": 5611,
      "Ġverified": 5612,
      "Ġmethod": 5613,
      "å¸Ŀ": 5614,
      "ç½ª": 5615,
      "æĶ¹è¿Ľ": 5616,
      "æŁĲä¸ª": 5617,
      "Ġwithout": 5618,
      "ä¸Ģæľ¬": 5619,
      "æĥħç»ª": 5620,
      "åłĤ": 5621,
      "ä¼½": 5622,
      "Ġbeh": 5623,
      "éŁ©": 5624,
      "Ġgeneral": 5625,
      "Ġspe": 5626,
      "æīĭç»Ńè´¹": 5627,
      "Ġå·²åĨ»ç»ĵ": 5628,
      "32": 5629,
      "æķ¢": 5630,
      "èĦĤ": 5631,
      "é¡¶": 5632,
      "å®Įæķ´": 5633,
      "Ġinvoked": 5634,
      "vironment": 5635,
      "higher": 5636,
      "èĥ¡": 5637,
      "å¸¸è§ģçļĦ": 5638,
      "åĨĴéĻ©": 5639,
      "Ġtolerance": 5640,
      "±ä¹Ĳ": 5641,
      "æĪĲæľ¬": 5642,
      "limits": 5643,
      "Ġfore": 5644,
      "çĶŁéķ¿": 5645,
      "ery": 5646,
      "åĢŁ": 5647,
      "ç»©": 5648,
      "åīįå¾Ģ": 5649,
      "eep": 5650,
      "å·®é¢Ŀ": 5651,
      "uation": 5652,
      "Ġå¾ħ": 5653,
      "åĬłåĪĨ": 5654,
      "éľĢè¦ģæ³¨æĦı": 5655,
      "ilar": 5656,
      "é½": 5657,
      "uling": 5658,
      "çªģçĦ¶": 5659,
      "å°ıåįİ": 5660,
      "verification": 5661,
      "tal": 5662,
      "ĠNov": 5663,
      "ç©¿çĿĢ": 5664,
      "test": 5665,
      "åĬ³": 5666,
      "ĠPar": 5667,
      "aves": 5668,
      "æľºæŀĦ": 5669,
      "æģĴ": 5670,
      "Ġnext": 5671,
      "struction": 5672,
      "Ġæľīäºīè®®": 5673,
      "æľīæīĢ": 5674,
      "å½¼": 5675,
      "åįģåĪĨ": 5676,
      "è¯¥çĶ¨": 5677,
      "ills": 5678,
      "ony": 5679,
      "æıĲä¾Ľä¸ĢäºĽ": 5680,
      "ç´«": 5681,
      "Ġarchived": 5682,
      "æĦıè¯Ĩ": 5683,
      "èĭ±åĽ½": 5684,
      "éĻĲé¢Ŀ": 5685,
      "âĦĥ": 5686,
      "Ġconc": 5687,
      "è·ĳæŃ¥": 5688,
      "éķľ": 5689,
      "ç¦ģ": 5690,
      "éĩįéĩı": 5691,
      "æĤ²": 5692,
      "Ġå·²å½Ĵæ¡£": 5693,
      "ãĢĤãĢĬ": 5694,
      "é«ĺåħ´": 5695,
      "Ġselected": 5696,
      "å®¹å·®": 5697,
      "å®¡æł¸å®¹å·®": 5698,
      "åĩĢå·®é¢Ŀ": 5699,
      "ĠX": 5700,
      "Ġvide": 5701,
      "anu": 5702,
      "Ġå·²æļĤåģľ": 5703,
      "bb": 5704,
      "ians": 5705,
      "ä¸Ģç¯ĩæĸĩç«ł": 5706,
      "åıªæĺ¯": 5707,
      "æĥł": 5708,
      "åıĺæļĸ": 5709,
      "ĠJune": 5710,
      "Ġident": 5711,
      "è£ģ": 5712,
      "ä¿¡çĶ¨åĬłåĪĨ": 5713,
      "åĢ¾": 5714,
      "èĽĭçĻ½": 5715,
      "rent": 5716,
      "omp": 5717,
      "Ġadjustment": 5718,
      "éķĩ": 5719,
      "ai": 5720,
      "por": 5721,
      "çľŁçļĦ": 5722,
      "çļĦæĦŁè§ī": 5723,
      "to": 5724,
      "vious": 5725,
      "ream": 5726,
      "å°¤": 5727,
      "æĺ¯ä¸Ģéĥ¨": 5728,
      "æ²Ļæ»©": 5729,
      "æıĲåįĩ": 5730,
      "ç§»åĬ¨": 5731,
      "å±ĭ": 5732,
      "åĲĪçĲĨ": 5733,
      "å¸Ń": 5734,
      "æįŁ": 5735,
      "åħ¬åħ±": 5736,
      "ä¸ĥ": 5737,
      "å¯¸": 5738,
      "ç»ĦåĲĪ": 5739,
      "èĴ¸": 5740,
      "ĠSe": 5741,
      "Ġheld": 5742,
      "åĮ»åŃ¦": 5743,
      "Ġtrad": 5744,
      "ĠOct": 5745,
      "John": 5746,
      "çĽ¸ä¿¡": 5747,
      "å¤ļæł·": 5748,
      "Ġfox": 5749,
      "æķ¬": 5750,
      "åĪ¶éĢł": 5751,
      "éĺµ": 5752,
      "Ġcancel": 5753,
      "Ġå¾ħå¤ĦçĲĨ": 5754,
      "Ġgames": 5755,
      "Ġå·²éªĮè¯ģ": 5756,
      "ĠçĶŁæķĪ": 5757,
      "ä¸Ģåħ±æľī": 5758,
      "funds": 5759,
      "ĠçĶŁæķĪä¸Ń": 5760,
      "imes": 5761,
      "Ġpresent": 5762,
      "igg": 5763,
      "äº¿": 5764,
      "åľ¨çº¿": 5765,
      "âĢ¦": 5766,
      "ç®Ģçº¦": 5767,
      "ĠComm": 5768,
      "Ġtit": 5769,
      "oung": 5770,
      "é«ĺæķĪ": 5771,
      "å¯¿": 5772,
      "ç¿°": 5773,
      "ultip": 5774,
      "Ġplayed": 5775,
      "----": 5776,
      "64": 5777,
      "dict": 5778,
      "åĬĽçļĦ": 5779,
      "policy": 5780,
      "500": 5781,
      "94": 5782,
      "å®¶äºº": 5783,
      "conom": 5784,
      "Ġable": 5785,
      "Ġå·²è¿ĩæľŁ": 5786,
      "æĪĲä¸ºäºĨ": 5787,
      "æĺ¯çļĦ": 5788,
      "çļĦæ¯ıä¸ª": 5789,
      "ĠPr": 5790,
      "Ġproject": 5791,
      "ured": 5792,
      "çļĦé£Łçī©": 5793,
      "æ®Ĭ": 5794,
      "Ġview": 5795,
      "æĸ°éĹ»æĬ¥éģĵ": 5796,
      "åįĸ": 5797,
      "Ġdeb": 5798,
      "åĳ¨æľ«": 5799,
      "çĽ¸åºĶ": 5800,
      "ownership": 5801,
      "æīĢéľĢ": 5802,
      "æĢ»åħ±": 5803,
      "Ġsit": 5804,
      "ä¸Ģå¤©": 5805,
      "ä¸Ĭä¸ĭæĸĩ": 5806,
      "çĶ¨çļĦ": 5807,
      "empt": 5808,
      "Ġ]": 5809,
      "aster": 5810,
      "34": 5811,
      "Ġfr": 5812,
      "éĥ½ä¼ļ": 5813,
      "å®¶çļĦ": 5814,
      "ä¸ĢæĿ¡": 5815,
      "iversity": 5816,
      "è¶Ĭé«ĺè¶Ĭ": 5817,
      "ç¿»è¯ĳæĪĲæ³ķè¯Ń": 5818,
      "point": 5819,
      "çļĦæ¸©": 5820,
      "å¾ªçİ¯": 5821,
      "å«": 5822,
      "ä¸ĢæĿ¯": 5823,
      "çĪ¶": 5824,
      "Ġinformation": 5825,
      "Ġsched": 5826,
      "ä½ľåºŁ": 5827,
      "Ġtown": 5828,
      "ä¹ĭåĲİ": 5829,
      "Ġ...": 5830,
      "Ġå·²ä½ľåºŁ": 5831,
      "æĭ¼åĨĻ": 5832,
      "ĠOctober": 5833,
      "åıĸåĢ¼": 5834,
      "åĶĲ": 5835,
      "Ġmen": 5836,
      "çĬ¬": 5837,
      "action": 5838,
      "è¯ļ": 5839,
      "ç§įç±»": 5840,
      "ĠNorth": 5841,
      "åı¤ä»£": 5842,
      "å½Ĵç±»": 5843,
      "Gen": 5844,
      "åĵ²": 5845,
      "ä»ĸåľ¨": 5846,
      "',": 5847,
      "Ġport": 5848,
      "æĩĴ": 5849,
      "ä¸Ģåı¥è¯Ŀ": 5850,
      "è§ĦåĪĴ": 5851,
      "æĿĢ": 5852,
      "æª¬": 5853,
      "è§Ĥä¼Ĺ": 5854,
      "èªī": 5855,
      "Ġneeded": 5856,
      "łæª¬": 5857,
      "æĮ¥": 5858,
      "Ġ195": 5859,
      "çŁŃæĸĩ": 5860,
      "å®¢æľį": 5861,
      "rodu": 5862,
      "çĭĲ": 5863,
      "ĠEu": 5864,
      "åı¯ä»¥çĶ¨": 5865,
      "æĳĩ": 5866,
      "Ġthroughout": 5867,
      "çļĦåĨħå®¹": 5868,
      "åĵģè´¨": 5869,
      "å¦ĤæŃ¤": 5870,
      "åľ°åĿĢ": 5871,
      "èİ«": 5872,
      "Ġless": 5873,
      "ç¶": 5874,
      "æŀĿ": 5875,
      "))": 5876,
      "Ġlocal": 5877,
      "æĹ¢": 5878,
      "æµªæ¼«": 5879,
      "å¿ĥæĥħ": 5880,
      "Ġquest": 5881,
      "ä¸»ä¹ī": 5882,
      "Ġaff": 5883,
      "ä¹Łä¼ļ": 5884,
      "èĢħçļĦ": 5885,
      "ecision": 5886,
      "Ġprof": 5887,
      "ÙĦ": 5888,
      "Ġdam": 5889,
      "Ġturn": 5890,
      "ç¯®çĲĥ": 5891,
      "åĩºèī²": 5892,
      "åĩıåİ»": 5893,
      "å¼łä¸ī": 5894,
      "ĠSouth": 5895,
      "æģ©": 5896,
      "ľä¼½": 5897,
      "å¸¦æĿ¥äºĨ": 5898,
      "'t": 5899,
      "Ġinfl": 5900,
      "ç¾İå¥½": 5901,
      "alf": 5902,
      "çĶ·åŃ©": 5903,
      "çŀ": 5904,
      "less": 5905,
      "ç¨ĭåº¦": 5906,
      "éĿ¢ä¸´": 5907,
      "çļĦæķ°æį®": 5908,
      "è®¾æĸ½": 5909,
      "Ġtrav": 5910,
      "å·Ŀ": 5911,
      "ä½ĵèĤ²": 5912,
      "åĮ¹éħį": 5913,
      "ĠMc": 5914,
      "åħĥéĴ±": 5915,
      "éĿ¢ä¸Ĭ": 5916,
      "çĿĽ": 5917,
      "apan": 5918,
      "ellig": 5919,
      "çļĦå¥½": 5920,
      "èĦ¸": 5921,
      "ways": 5922,
      "èĥŀ": 5923,
      "æµģçķħ": 5924,
      "èį·": 5925,
      "çĭ¸": 5926,
      "å°Ĩä¸ĭéĿ¢": 5927,
      "rench": 5928,
      "å¿ħè¦ģ": 5929,
      "çļĦç¥": 5930,
      "æ¼Ĥ": 5931,
      "Ġstrong": 5932,
      "Ġel": 5933,
      "æĹ¶æľŁ": 5934,
      "epend": 5935,
      "rate": 5936,
      "ãĢĭãĢĤ": 5937,
      "è®¾ç½®": 5938,
      "ä¼ĺç§Ģ": 5939,
      "Ġanim": 5940,
      "Ġnamed": 5941,
      "Ġweek": 5942,
      "ï¼īï¼Ľ": 5943,
      "Ġuses": 5944,
      "raft": 5945,
      "Ġfre": 5946,
      "elt": 5947,
      "æĤł": 5948,
      "å¹¶ä¸į": 5949,
      "èĬ±åĽŃ": 5950,
      "ĠEnglish": 5951,
      "åĪĨåŃĲ": 5952,
      "æľĢå¥½": 5953,
      "å¤§æ°Ķ": 5954,
      "è§£åĨ³æĸ¹æ¡Ī": 5955,
      "Ġbetter": 5956,
      "Ġenvironment": 5957,
      "Decision": 5958,
      "Ġupdate": 5959,
      "osp": 5960,
      "ising": 5961,
      "é»ĳèī²": 5962,
      "yn": 5963,
      "ä¸Ģå®¶": 5964,
      "å°ıçĮ«": 5965,
      "éĩįåĨĻ": 5966,
      "Ġschedul": 5967,
      "èĢĮä¸įæĺ¯": 5968,
      "Ġdevelopment": 5969,
      "mber": 5970,
      "æĪĳåľ¨": 5971,
      "æĥħåĨµä¸ĭ": 5972,
      "åºĨ": 5973,
      "éĹŃ": 5974,
      "è¿ĽæŃ¥": 5975,
      "Ġreduce": 5976,
      "çļĦè®¾è®¡": 5977,
      "Ġdelete": 5978,
      "ĠKing": 5979,
      "Ġtechnology": 5980,
      "æķ°åĪĹ": 5981,
      "åĪ°è¾¾": 5982,
      "Ġ||": 5983,
      "çļĦçŃĶæ¡Ī": 5984,
      "æľĥ": 5985,
      "ç¬¬äºĮä¸ª": 5986,
      "æŃ¦": 5987,
      "åĦ¿ç«¥": 5988,
      "Ġtask": 5989,
      "çº¹": 5990,
      "å¹¶æıĲä¾Ľ": 5991,
      "ditionally": 5992,
      "çº¦ç¿°": 5993,
      "æ¬£èµı": 5994,
      "åĲįä¸ĭ": 5995,
      "å¼Ģå¤´": 5996,
      ":-": 5997,
      "å¤ªç©º": 5998,
      "ŁéĢļ": 5999,
      "åıĸåĩº": 6000,
      "åįļçī©": 6001,
      "å¼ºçĥĪ": 6002,
      "æĪĳæĹłæ³ķ": 6003,
      "çľĭèµ·æĿ¥": 6004,
      "éĤ£éĩĮ": 6005,
      "Ġgive": 6006,
      "Ġled": 6007,
      "arm": 6008,
      "åĲįä¸ĭç¬¦åĲĪ": 6009,
      "à¯": 6010,
      "ĠFl": 6011,
      "è°ĥæŁ¥": 6012,
      "å¤ľæĻļ": 6013,
      "\"ãĢĤ": 6014,
      "å½¢å®¹è¯į": 6015,
      "æīĵå¼Ģ": 6016,
      "Ġstanding": 6017,
      "78": 6018,
      "è¿ĺéľĢè¦ģ": 6019,
      "Ġcommon": 6020,
      "Ġsuccess": 6021,
      "Ġlazy": 6022,
      "å¤§å®¶": 6023,
      "æ°¸è¿ľ": 6024,
      "atic": 6025,
      "çīĽèĤī": 6026,
      "ze": 6027,
      "æ¡¥": 6028,
      "æĶ¶åħ¥": 6029,
      "çĶļ": 6030,
      "å½¢çĬ¶": 6031,
      "æĻĤ": 6032,
      "çļĦç¼": 6033,
      "æīĢåľ¨": 6034,
      "äºĭçī©": 6035,
      "ĠJuly": 6036,
      "ĠBy": 6037,
      "çİ©åħ·": 6038,
      "Ġgives": 6039,
      "pril": 6040,
      "çļĦæ¸¸": 6041,
      "çŃīé¢ĨåŁŁ": 6042,
      "æĺ¯ä¸ŃåĽ½": 6043,
      "è§Ī": 6044,
      "å¡ŀ": 6045,
      "oose": 6046,
      "ertain": 6047,
      "çı¾": 6048,
      "ä¸ģ": 6049,
      "æīĺ": 6050,
      "ĠBro": 6051,
      "Ġdom": 6052,
      "æ£ī": 6053,
      "Ġer": 6054,
      "Ġult": 6055,
      "ĽåĽ´": 6056,
      "Ġrepl": 6057,
      "é¸£": 6058,
      "ble": 6059,
      "Ġexperience": 6060,
      "ĠOr": 6061,
      "éĵ¶è¡Į": 6062,
      "é«ĺäºİ": 6063,
      "asing": 6064,
      "Ġhere": 6065,
      "é£İæĻ¯": 6066,
      "ĠGu": 6067,
      "ours": 6068,
      "Ġä¹ĭéĹ´": 6069,
      "å®¶å±ħ": 6070,
      "çī¹æ®Ĭ": 6071,
      "achine": 6072,
      "çļĦæ¼": 6073,
      "åİ¨": 6074,
      "Ġremaining": 6075,
      "äº¡": 6076,
      "Ġappro": 6077,
      "çļĦæ¬": 6078,
      "ying": 6079,
      "Ġren": 6080,
      "åĵªä¸ªåĬ¨ä½ľ": 6081,
      "ĠJapan": 6082,
      "oci": 6083,
      "iding": 6084,
      "Ġfeel": 6085,
      "ency": 6086,
      "æŁłæª¬": 6087,
      "resent": 6088,
      "ĠNovember": 6089,
      "Ġmar": 6090,
      "çĲ´": 6091,
      "Ġeconom": 6092,
      "iven": 6093,
      "éĿ¢å¯¹": 6094,
      "éĤ£äºĽ": 6095,
      "æĢ»ä¹ĭ": 6096,
      "ello": 6097,
      "èĩªè¡Įè½¦": 6098,
      "iod": 6099,
      "yle": 6100,
      "\\\\": 6101,
      "ĠApril": 6102,
      "Ġpost": 6103,
      "è¿Ĳç®Ĺ": 6104,
      "è§Ĥå¯Ł": 6105,
      "Ġcomb": 6106,
      "ç¢İ": 6107,
      "Ġconn": 6108,
      "å°ıæľĭåıĭ": 6109,
      "èĬ±è´¹": 6110,
      "idd": 6111,
      "rote": 6112,
      "æİ¥åıĹ": 6113,
      "çļĦç¨": 6114,
      "cribe": 6115,
      "èĤ¥": 6116,
      "æĺ¯ä¸Ģä½į": 6117,
      "ç²Ĵ": 6118,
      "Ġincluded": 6119,
      "æĮĩå®ļçļĦ": 6120,
      "è¢ĸ": 6121,
      "Ġdays": 6122,
      "ç»ĵæĿŁ": 6123,
      "çļĦéŁ³ä¹Ĳ": 6124,
      "dition": 6125,
      "Ġcult": 6126,
      "ĠAdditionally": 6127,
      "Ġdescribed": 6128,
      "Ġenc": 6129,
      "æŁĲäºĽ": 6130,
      "è¡«": 6131,
      "ister": 6132,
      "Ġallowed": 6133,
      "ï¼ļãĢĬ": 6134,
      "è´£ä»»": 6135,
      "çļĦæ´»": 6136,
      "çĶŁåŃĺ": 6137,
      "è°ĥåĳ³": 6138,
      "æĢĿç»´": 6139,
      "åĶ¯": 6140,
      "åı¦ä¸Ģä¸ª": 6141,
      "ä»¿ä½Ľ": 6142,
      "Ġpotential": 6143,
      "åħħæ»¡äºĨ": 6144,
      "Generate": 6145,
      "çļĦç½": 6146,
      "ploy": 6147,
      "Ġrole": 6148,
      "çĭĲçĭ¸": 6149,
      "çº·": 6150,
      "è¯¥çĶ³è¯·": 6151,
      "Ġdeath": 6152,
      "æŁĶè½¯": 6153,
      "è½»è½»": 6154,
      "æĦīæĤ¦": 6155,
      "éļĲç§ģ": 6156,
      "ĠWe": 6157,
      "fund": 6158,
      "ead": 6159,
      "åĵ¦": 6160,
      "Ġcover": 6161,
      "cember": 6162,
      "é£ŀè¡Į": 6163,
      "æĦīå¿«": 6164,
      "Ġrequire": 6165,
      "æĹ¶ä»£": 6166,
      "eter": 6167,
      "åŃĺåĤ¨": 6168,
      "%ï¼Ľ": 6169,
      "ĠMarch": 6170,
      "ï¼ļ'": 6171,
      "istics": 6172,
      "fic": 6173,
      "Ġprevious": 6174,
      "Ġgrow": 6175,
      "ovi": 6176,
      "ĠII": 6177,
      "ague": 6178,
      "è´¡": 6179,
      "åĪĩæĪĲ": 6180,
      "79": 6181,
      "æĢ»ç»Ł": 6182,
      "Ġscen": 6183,
      "æıĲåĪ°äºĨ": 6184,
      "å¼ĢæĶ¾": 6185,
      "ä¹Ŀ": 6186,
      "æĪĳå¾Ī": 6187,
      "åĴĮä¸Ģä¸ª": 6188,
      "åıĺéĩı": 6189,
      "ç»ĻäºĨ": 6190,
      "å°ıé¸Ł": 6191,
      "ĠDecember": 6192,
      "å§ĵåĲį": 6193,
      "æľĢå¥½çļĦ": 6194,
      "irc": 6195,
      "çĽ®çļĦ": 6196,
      "ories": 6197,
      "Ġlate": 6198,
      "éĿ¢æĸĻ": 6199,
      "ä¿Ŀè¯ģ": 6200,
      "ä¸»è§Ĵ": 6201,
      "Ġfoc": 6202,
      "Ġz": 6203,
      "æĪĺäºī": 6204,
      "aur": 6205,
      "Ġhaving": 6206,
      "çĺ": 6207,
      "èģª": 6208,
      "Ġmove": 6209,
      "èĬ³": 6210,
      "æĺŁçĲĥ": 6211,
      "æ¨¡æĭŁ": 6212,
      "å¹¶è¾ĵåĩº": 6213,
      "çĶŁæĢģç³»ç»Ł": 6214,
      "Ġï¼Į": 6215,
      "Ġfood": 6216,
      "ampl": 6217,
      "åı¯ä¿¡åº¦": 6218,
      "gle": 6219,
      "ple": 6220,
      "ott": 6221,
      "åĲĥäºĨ": 6222,
      "akes": 6223,
      "åĲĪéĢĤçļĦ": 6224,
      "On": 6225,
      "ival": 6226,
      "Ġsugg": 6227,
      "ä»¥ç¡®ä¿Ŀ": 6228,
      "æľªæĿ¥çļĦ": 6229,
      "Ġsouth": 6230,
      "Ġwrote": 6231,
      "rew": 6232,
      "ĠWill": 6233,
      "åĨ¬åŃ£": 6234,
      "ç¨³å®ļ": 6235,
      "åĮºåŁŁ": 6236,
      "å¯Ĩçłģ": 6237,
      "æī¹åĩĨåĲĹ": 6238,
      "é¼ĵåĬ±": 6239,
      "hedu": 6240,
      "Ġtoget": 6241,
      "éģµ": 6242,
      "æ°Ķä½ĵ": 6243,
      "Ġpossible": 6244,
      "hedule": 6245,
      "Ġtogether": 6246,
      "Ġsw": 6247,
      "ĠAm": 6248,
      "å¢Ļ": 6249,
      "åıĬåħ¶": 6250,
      "é¸Ń": 6251,
      "ogn": 6252,
      "Ġattempt": 6253,
      "åįļçī©é¦Ĩ": 6254,
      "Ġestab": 6255,
      "è§Ĩé¢ĳ": 6256,
      "é¢Ħç®Ĺ": 6257,
      "ged": 6258,
      "éĺ¶": 6259,
      "ä¹Łæľī": 6260,
      "avy": 6261,
      "æł¼å¼ı": 6262,
      "ĠFrench": 6263,
      "æł·çļĦ": 6264,
      "æī¬": 6265,
      "Ġfeatures": 6266,
      "çĪĨ": 6267,
      "éħĴåºĹ": 6268,
      "Ġhuman": 6269,
      "anuary": 6270,
      "éĢīåĩº": 6271,
      "çļĦè¯Ħä»·": 6272,
      "Ġsun": 6273,
      "ava": 6274,
      "ç£¨": 6275,
      "çļĦç¤¾": 6276,
      "ĠSm": 6277,
      "èį£": 6278,
      "å¾ĹåĪ°äºĨ": 6279,
      "68": 6280,
      "æĻ¨": 6281,
      "Ġjob": 6282,
      "åŁĥ": 6283,
      "ä¸ªæľĭåıĭ": 6284,
      "Ġread": 6285,
      "åīª": 6286,
      "ĠYou": 6287,
      "ached": 6288,
      "åĿĩåĮĢåĪĨå¸ĥ": 6289,
      "æĪĳä»¬å°Ĩ": 6290,
      "Ġengine": 6291,
      "åĲī": 6292,
      "ithm": 6293,
      "èĬĴ": 6294,
      "Ġstorm": 6295,
      "Ġsimilar": 6296,
      "æĪĲåĪĨ": 6297,
      "æł¸å¿ĥ": 6298,
      "éĨī": 6299,
      "çķĻä¸ĭ": 6300,
      "ĠEurop": 6301,
      "Ġproduction": 6302,
      "gth": 6303,
      "Ð¸": 6304,
      "å¨±ä¹Ĳ": 6305,
      "çļĦç©º": 6306,
      "Ġbuilt": 6307,
      "mar": 6308,
      "åŃĲéĩĮ": 6309,
      "ä½İäºİ": 6310,
      "ĠEx": 6311,
      "ĠGe": 6312,
      "è¡¨æ¼Ķ": 6313,
      "fe": 6314,
      "ĠMan": 6315,
      "éĤ£ä¸ª": 6316,
      "ĠJanuary": 6317,
      "åİŁçĲĨ": 6318,
      "èµĦæĸĻ": 6319,
      "åħ¨çĲĥåıĺæļĸ": 6320,
      "æľĢåĸľæ¬¢çļĦ": 6321,
      "çĤ¸": 6322,
      "ç®Ģè¦ģ": 6323,
      "å²¸": 6324,
      "è´´": 6325,
      "Ġpolit": 6326,
      "lying": 6327,
      "ĠãĢĬ": 6328,
      "Ġside": 6329,
      "æħ§": 6330,
      "æĩĤ": 6331,
      "55": 6332,
      "Ġvideo": 6333,
      "æĭĤ": 6334,
      "Ġlet": 6335,
      "çļĦæ±": 6336,
      "ridge": 6337,
      "ored": 6338,
      "Describe": 6339,
      "Ġsocial": 6340,
      "éĻĨ": 6341,
      "ese": 6342,
      "å»ºè®®æĤ¨": 6343,
      "é¸¡èĤī": 6344,
      "çļĦæ¦Ĥçİĩ": 6345,
      "çļĦç²": 6346,
      "å»¶": 6347,
      "èĺ": 6348,
      "æĸ¼": 6349,
      "Ġpolicy": 6350,
      "Ġcand": 6351,
      "æ¸ħæĸ°": 6352,
      "ä¼ĺè´¨": 6353,
      "Ġunderstand": 6354,
      "æ¡ĥ": 6355,
      "éĽĦ": 6356,
      "ç²¾ç¥ŀ": 6357,
      "çĻ½èī²": 6358,
      "Ġinit": 6359,
      "ä¸ĬæĬ¥": 6360,
      "æ²Ļæĭī": 6361,
      "ä¸ªæ©ĻåŃĲ": 6362,
      "Ġnatural": 6363,
      "å¤ıæĹ¥": 6364,
      "çļĦéĢīæĭ©": 6365,
      "é¢Ħçº¦": 6366,
      "åºĶçĶ¨äºİ": 6367,
      "76": 6368,
      "Ġjumps": 6369,
      "æĶ¿çŃĸ": 6370,
      "dd": 6371,
      "æķ°åĢ¼": 6372,
      "è½¬åĮĸ": 6373,
      "èī¾": 6374,
      "ä¸ºä½ł": 6375,
      "æĢķ": 6376,
      "ĠGen": 6377,
      "ç»Ĩèĥŀ": 6378,
      "Â°": 6379,
      "çĳľä¼½": 6380,
      "éľľ": 6381,
      "èıľåĵģ": 6382,
      "ally": 6383,
      "ĠThere": 6384,
      "Ġtest": 6385,
      "æķ¦": 6386,
      "åĨħå¿ĥ": 6387,
      "åħĶåŃĲ": 6388,
      "Ġanaly": 6389,
      "æķıæĦŁåº¦": 6390,
      "Ġinvoice": 6391,
      "å°ıæĺİåĴĮ": 6392,
      "æĹ¶åħī": 6393,
      "æİ¨çĲĨ": 6394,
      "Ġdispat": 6395,
      "æ¸ħæ´ģ": 6396,
      "Ġtotal": 6397,
      "æĿ¥è®¡ç®Ĺ": 6398,
      "Ġsupp": 6399
    },
    "merges": [
      [
        "ä",
        "¸"
      ],
      [
        "ï",
        "¼"
      ],
      [
        "ï¼",
        "Į"
      ],
      [
        "ç",
        "ļ"
      ],
      [
        "çļ",
        "Ħ"
      ],
      [
        "ã",
        "Ģ"
      ],
      [
        "Ġ",
        "t"
      ],
      [
        "Ġ",
        "a"
      ],
      [
        "ãĢ",
        "Ĥ"
      ],
      [
        "h",
        "e"
      ],
      [
        "i",
        "n"
      ],
      [
        "ä",
        "º"
      ],
      [
        "ä",
        "»"
      ],
      [
        "å",
        "ı"
      ],
      [
        "e",
        "r"
      ],
      [
        "æ",
        "ľ"
      ],
      [
        "o",
        "n"
      ],
      [
        "r",
        "e"
      ],
      [
        "Ġt",
        "he"
      ],
      [
        "è",
        "¯"
      ],
      [
        "å",
        "ħ"
      ],
      [
        "å",
        "Ī"
      ],
      [
        "a",
        "t"
      ],
      [
        "è",
        "¿"
      ],
      [
        "æ",
        "Ī"
      ],
      [
        "e",
        "n"
      ],
      [
        "ä¸",
        "Ģ"
      ],
      [
        "Ġ",
        "s"
      ],
      [
        "ä",
        "½"
      ],
      [
        "æ",
        "ĺ"
      ],
      [
        "å",
        "¤"
      ],
      [
        "ç",
        "Ķ"
      ],
      [
        "å",
        "®"
      ],
      [
        "i",
        "s"
      ],
      [
        "e",
        "d"
      ],
      [
        "o",
        "r"
      ],
      [
        "a",
        "n"
      ],
      [
        "å",
        "Ĳ"
      ],
      [
        "å",
        "ľ"
      ],
      [
        "e",
        "s"
      ],
      [
        "ä",
        "¹"
      ],
      [
        "ä¸",
        "ª"
      ],
      [
        "æ",
        "ĸ"
      ],
      [
        "Ġ",
        "b"
      ],
      [
        "ç",
        "»"
      ],
      [
        "Ġ",
        "c"
      ],
      [
        "Ġ",
        "w"
      ],
      [
        "Ġ",
        "o"
      ],
      [
        "æĺ",
        "¯"
      ],
      [
        "Ġ",
        "1"
      ],
      [
        "Ġ",
        "p"
      ],
      [
        "å",
        "Ĵ"
      ],
      [
        "i",
        "t"
      ],
      [
        "å",
        "°"
      ],
      [
        "ï¼",
        "ļ"
      ],
      [
        "in",
        "g"
      ],
      [
        "åĴ",
        "Į"
      ],
      [
        "å",
        "Ĭ"
      ],
      [
        "a",
        "l"
      ],
      [
        "Ġ",
        "f"
      ],
      [
        "å",
        "Ń"
      ],
      [
        "Ġa",
        "n"
      ],
      [
        "å",
        "ĳ"
      ],
      [
        "ä»",
        "¥"
      ],
      [
        "è",
        "®"
      ],
      [
        "i",
        "c"
      ],
      [
        "Ġ",
        "in"
      ],
      [
        "æ",
        "Ĺ"
      ],
      [
        "Ġ",
        ","
      ],
      [
        "ãĢ",
        "ģ"
      ],
      [
        "åľ",
        "¨"
      ],
      [
        "a",
        "r"
      ],
      [
        "æ",
        "ķ"
      ],
      [
        "Ġ",
        "m"
      ],
      [
        "o",
        "u"
      ],
      [
        "å",
        "Ľ"
      ],
      [
        "Ġ",
        "d"
      ],
      [
        "æ",
        "Ŀ"
      ],
      [
        "é",
        "ĩ"
      ],
      [
        "i",
        "on"
      ],
      [
        "Ġt",
        "o"
      ],
      [
        "en",
        "t"
      ],
      [
        "Ġo",
        "f"
      ],
      [
        "æľ",
        "ī"
      ],
      [
        "Ġan",
        "d"
      ],
      [
        "æĪ",
        "ĳ"
      ],
      [
        "å",
        "ĩ"
      ],
      [
        "å",
        "º"
      ],
      [
        "è",
        "¡"
      ],
      [
        "ä¸",
        "º"
      ],
      [
        "è¿",
        "Ļ"
      ],
      [
        "â",
        "Ģ"
      ],
      [
        "åı",
        "¯"
      ],
      [
        "å",
        "į"
      ],
      [
        "é",
        "Ģ"
      ],
      [
        "ä¸",
        "Ń"
      ],
      [
        "l",
        "e"
      ],
      [
        "å",
        "¹"
      ],
      [
        "a",
        "s"
      ],
      [
        "é",
        "Ĺ"
      ],
      [
        "ä",
        "¼"
      ],
      [
        "Ġt",
        "h"
      ],
      [
        "Ġ",
        "re"
      ],
      [
        "ĥ",
        "½"
      ],
      [
        "å",
        "·"
      ],
      [
        "Ġ",
        "."
      ],
      [
        "äº",
        "Ĩ"
      ],
      [
        "å",
        "¸"
      ],
      [
        "åĪ",
        "Ĩ"
      ],
      [
        "äº",
        "º"
      ],
      [
        "æ",
        "ī"
      ],
      [
        "çĶ",
        "¨"
      ],
      [
        "æ",
        "ł"
      ],
      [
        "å",
        "¥"
      ],
      [
        "å",
        "¾"
      ],
      [
        "å",
        "¯"
      ],
      [
        "r",
        "o"
      ],
      [
        "ç",
        "ī"
      ],
      [
        "åĳ",
        "¨"
      ],
      [
        "é",
        "¢"
      ],
      [
        "ï¼",
        "Ł"
      ],
      [
        "å",
        "Ĩ"
      ],
      [
        "c",
        "t"
      ],
      [
        "æ",
        "Ģ"
      ],
      [
        "å",
        "Į"
      ],
      [
        "æ",
        "Ń"
      ],
      [
        "i",
        "l"
      ],
      [
        "æ",
        "ŀ"
      ],
      [
        "Ġ",
        "h"
      ],
      [
        "ç",
        "İ"
      ],
      [
        "å",
        "½"
      ],
      [
        "ç",
        "§"
      ],
      [
        "è",
        "§"
      ],
      [
        "Ġ",
        "e"
      ],
      [
        "å",
        "ĵ"
      ],
      [
        "ç",
        "Ń"
      ],
      [
        "æĸ",
        "ĩ"
      ],
      [
        "å",
        "¼"
      ],
      [
        "u",
        "s"
      ],
      [
        "è",
        "¦"
      ],
      [
        "è",
        "ĥ½"
      ],
      [
        "0",
        "0"
      ],
      [
        "ç",
        "Ľ"
      ],
      [
        "ä¸",
        "ĭ"
      ],
      [
        "è¦",
        "ģ"
      ],
      [
        "e",
        "t"
      ],
      [
        "è",
        "Ģ"
      ],
      [
        "ä¸",
        "į"
      ],
      [
        "çļĦ",
        "æ"
      ],
      [
        "æķ",
        "°"
      ],
      [
        "e",
        "l"
      ],
      [
        "Ġ",
        "n"
      ],
      [
        "çĶ",
        "Ł"
      ],
      [
        "ä¸Ģ",
        "ä¸ª"
      ],
      [
        "Ġ",
        "2"
      ],
      [
        "é",
        "Ŀ"
      ],
      [
        "o",
        "l"
      ],
      [
        "è",
        "´"
      ],
      [
        "o",
        "m"
      ],
      [
        "åı¯",
        "ä»¥"
      ],
      [
        "Ġ",
        "l"
      ],
      [
        "ä»",
        "¬"
      ],
      [
        "æĪ",
        "Ĳ"
      ],
      [
        "åĩ",
        "º"
      ],
      [
        "æĹ",
        "¶"
      ],
      [
        "Ġ",
        "T"
      ],
      [
        "¦",
        "Ĥ"
      ],
      [
        "ä¹",
        "ĭ"
      ],
      [
        "ä½",
        "ľ"
      ],
      [
        "æ",
        "³"
      ],
      [
        "Ġ",
        "A"
      ],
      [
        "å",
        "İ"
      ],
      [
        "i",
        "v"
      ],
      [
        "å°",
        "ı"
      ],
      [
        "å¯",
        "¹"
      ],
      [
        "Ġ",
        "is"
      ],
      [
        "Ġs",
        "t"
      ],
      [
        "æ",
        "Ħ"
      ],
      [
        "æ",
        "Ĭ"
      ],
      [
        "è¡",
        "Į"
      ],
      [
        "ä¸",
        "Ĭ"
      ],
      [
        "æ",
        "¯"
      ],
      [
        "åĪ",
        "°"
      ],
      [
        "i",
        "g"
      ],
      [
        "æ",
        "¬"
      ],
      [
        "ç",
        "Ĳ"
      ],
      [
        "æ",
        "°"
      ],
      [
        "ç",
        "º"
      ],
      [
        "åŃ",
        "Ĳ"
      ],
      [
        "Ġ",
        "r"
      ],
      [
        "æ",
        "ı"
      ],
      [
        "Ġ",
        "g"
      ],
      [
        "æ",
        "ĥ"
      ],
      [
        "æĿ",
        "¥"
      ],
      [
        "ä¼",
        "ļ"
      ],
      [
        "å",
        "¦Ĥ"
      ],
      [
        "ä",
        "¿"
      ],
      [
        "i",
        "m"
      ],
      [
        "è",
        "¾"
      ],
      [
        "è",
        "ĩ"
      ],
      [
        "æ",
        "ĭ"
      ],
      [
        "æ",
        "İ"
      ],
      [
        "æ",
        "Į"
      ],
      [
        "å¥",
        "½"
      ],
      [
        "äº",
        "İ"
      ],
      [
        "c",
        "e"
      ],
      [
        "u",
        "n"
      ],
      [
        "ä»",
        "ĸ"
      ],
      [
        "å®",
        "ļ"
      ],
      [
        "è",
        "µ"
      ],
      [
        "æŀ",
        "ľ"
      ],
      [
        "ç",
        "®"
      ],
      [
        "s",
        "t"
      ],
      [
        "Ġb",
        "e"
      ],
      [
        "a",
        "m"
      ],
      [
        "çŃ",
        "ī"
      ],
      [
        "ä",
        "¾"
      ],
      [
        "åĬ",
        "¨"
      ],
      [
        "Ġ",
        "S"
      ],
      [
        "ä½",
        "ł"
      ],
      [
        "v",
        "er"
      ],
      [
        "æ",
        "µ"
      ],
      [
        "å",
        "¿"
      ],
      [
        "æ",
        "į"
      ],
      [
        "u",
        "t"
      ],
      [
        "é¢",
        "ĺ"
      ],
      [
        "o",
        "t"
      ],
      [
        "at",
        "e"
      ],
      [
        "æ",
        "Ľ"
      ],
      [
        "l",
        "y"
      ],
      [
        "r",
        "i"
      ],
      [
        "at",
        "ion"
      ],
      [
        "q",
        "u"
      ],
      [
        "an",
        "d"
      ],
      [
        "åľ",
        "°"
      ],
      [
        "ç",
        "Ļ"
      ],
      [
        "è¯",
        "·"
      ],
      [
        "c",
        "h"
      ],
      [
        "åŃ",
        "¦"
      ],
      [
        "é",
        "Ļ"
      ],
      [
        "4",
        "5"
      ],
      [
        "Ġf",
        "or"
      ],
      [
        "i",
        "d"
      ],
      [
        "ç»",
        "Ļ"
      ],
      [
        "æľ",
        "¬"
      ],
      [
        "æ",
        "Ļ"
      ],
      [
        "é",
        "£"
      ],
      [
        "æ",
        "Ķ"
      ],
      [
        "a",
        "d"
      ],
      [
        "å¤",
        "§"
      ],
      [
        "Ġ",
        "\""
      ],
      [
        "Ġ",
        "P"
      ],
      [
        "æ",
        "±"
      ],
      [
        "å°",
        "Ĩ"
      ],
      [
        "æĸ",
        "¹"
      ],
      [
        "Ġ",
        "on"
      ],
      [
        "çī",
        "©"
      ],
      [
        "è¯",
        "¥"
      ],
      [
        "å¤",
        "ļ"
      ],
      [
        "å¤",
        "©"
      ],
      [
        "ç",
        "±"
      ],
      [
        "Ġp",
        "er"
      ],
      [
        "o",
        "w"
      ],
      [
        "å",
        "±"
      ],
      [
        "å·",
        "¥"
      ],
      [
        "ï¼",
        "Ľ"
      ],
      [
        "a",
        "y"
      ],
      [
        "Ġa",
        "s"
      ],
      [
        "æľ",
        "Ģ"
      ],
      [
        "3",
        "0"
      ],
      [
        "é",
        "ľ"
      ],
      [
        "åĲ",
        "Į"
      ],
      [
        "éĿ",
        "¢"
      ],
      [
        "è",
        "ī"
      ],
      [
        "Ġb",
        "y"
      ],
      [
        "i",
        "r"
      ],
      [
        "é",
        "ĺ"
      ],
      [
        "æĺ",
        "İ"
      ],
      [
        "æı",
        "Ĳ"
      ],
      [
        "i",
        "f"
      ],
      [
        "å®",
        "ĥ"
      ],
      [
        "åħ",
        "¶"
      ],
      [
        "éĹ",
        "´"
      ],
      [
        "Ġ",
        "C"
      ],
      [
        "1",
        "5"
      ],
      [
        "èĩ",
        "ª"
      ],
      [
        "t",
        "er"
      ],
      [
        "å¹",
        "¶"
      ],
      [
        "u",
        "r"
      ],
      [
        "æ",
        "¸"
      ],
      [
        "ç",
        "¬"
      ],
      [
        "è",
        "½"
      ],
      [
        "æį",
        "®"
      ],
      [
        "äº",
        "Ľ"
      ],
      [
        "åħ",
        "³"
      ],
      [
        "çİ",
        "°"
      ],
      [
        "Ġ",
        "M"
      ],
      [
        "éĩ",
        "į"
      ],
      [
        "Ġw",
        "as"
      ],
      [
        "Ġth",
        "at"
      ],
      [
        "åº",
        "Ķ"
      ],
      [
        "æĽ",
        "´"
      ],
      [
        "éĹ",
        "®"
      ],
      [
        "Ġ",
        "3"
      ],
      [
        "æ",
        "Ĥ"
      ],
      [
        "åĬ",
        "ł"
      ],
      [
        "æ³",
        "ķ"
      ],
      [
        "è¿",
        "ĩ"
      ],
      [
        "ç",
        "Ħ"
      ],
      [
        "åı",
        "ĳ"
      ],
      [
        "u",
        "l"
      ],
      [
        "âĢ",
        "ľ"
      ],
      [
        "âĢ",
        "Ŀ"
      ],
      [
        "æĢ",
        "§"
      ],
      [
        "çĲ",
        "Ĩ"
      ],
      [
        "c",
        "ent"
      ],
      [
        "ä½",
        "ĵ"
      ],
      [
        "åĽ",
        "ł"
      ],
      [
        "çļĦ",
        "ç"
      ],
      [
        "åı",
        "¥"
      ],
      [
        "æ",
        "¡"
      ],
      [
        "æ",
        "²"
      ],
      [
        "is",
        "t"
      ],
      [
        "è",
        "°"
      ],
      [
        "è¯",
        "Ń"
      ],
      [
        "éľ",
        "Ģ"
      ],
      [
        "è¡",
        "¨"
      ],
      [
        "æ",
        "´"
      ],
      [
        "çĻ",
        "¾"
      ],
      [
        "å",
        "ī"
      ],
      [
        "Ġ",
        "B"
      ],
      [
        "ç§",
        "į"
      ],
      [
        "he",
        "r"
      ],
      [
        "it",
        "h"
      ],
      [
        "Ġ",
        "6"
      ],
      [
        "ç",
        "«"
      ],
      [
        "é",
        "ģ"
      ],
      [
        "Ġth",
        "is"
      ],
      [
        "æĪ",
        "ĸ"
      ],
      [
        "it",
        "y"
      ],
      [
        "g",
        "e"
      ],
      [
        "é",
        "«"
      ],
      [
        "å¾",
        "Ĺ"
      ],
      [
        "Ġ",
        "I"
      ],
      [
        "æ",
        "®"
      ],
      [
        "ç",
        "³"
      ],
      [
        "ou",
        "n"
      ],
      [
        "W",
        "h"
      ],
      [
        "çĦ",
        "¶"
      ],
      [
        "ic",
        "h"
      ],
      [
        "ç",
        "Ĥ"
      ],
      [
        "Ġ",
        "8"
      ],
      [
        "å¸",
        "¸"
      ],
      [
        "ä¸",
        "İ"
      ],
      [
        "Ġ",
        "@"
      ],
      [
        "æĦ",
        "Ł"
      ],
      [
        "é«",
        "ĺ"
      ],
      [
        "è",
        "Ĭ"
      ],
      [
        "è¿",
        "Ľ"
      ],
      [
        "éĩ",
        "ı"
      ],
      [
        "åį",
        "ķ"
      ],
      [
        "ç±",
        "»"
      ],
      [
        "es",
        "t"
      ],
      [
        "e",
        "ct"
      ],
      [
        "çĽ",
        "¸"
      ],
      [
        "m",
        "ent"
      ],
      [
        "Ġ",
        "7"
      ],
      [
        "Ġ",
        "0"
      ],
      [
        "åº",
        "¦"
      ],
      [
        "æĪĳ",
        "ä»¬"
      ],
      [
        "ĠT",
        "he"
      ],
      [
        "çĻ¾",
        "åĪĨ"
      ],
      [
        "o",
        "s"
      ],
      [
        "ä¹",
        "Ī"
      ],
      [
        "er",
        "s"
      ],
      [
        "ä½",
        "¿"
      ],
      [
        "åĵ",
        "ģ"
      ],
      [
        "åĵ",
        "ª"
      ],
      [
        "Ġper",
        "cent"
      ],
      [
        "åħ",
        "·"
      ],
      [
        "å",
        "Ģ"
      ],
      [
        "è¯",
        "į"
      ],
      [
        "a",
        "in"
      ],
      [
        "å",
        "ģ"
      ],
      [
        "å",
        "Ł"
      ],
      [
        "re",
        "s"
      ],
      [
        "ç",
        "ľ"
      ],
      [
        "Ġ",
        "("
      ],
      [
        "æī",
        "Ģ"
      ],
      [
        "æ®",
        "µ"
      ],
      [
        "å¹",
        "´"
      ],
      [
        "çĻ¾åĪĨ",
        "ä¹ĭ"
      ],
      [
        "åĬ",
        "Ľ"
      ],
      [
        "Ġ",
        "çĻ¾åĪĨä¹ĭ"
      ],
      [
        "Ġw",
        "ith"
      ],
      [
        "èĢ",
        "ħ"
      ],
      [
        "è®",
        "¡"
      ],
      [
        "æĪ",
        "·"
      ],
      [
        "d",
        "s"
      ],
      [
        "èī",
        "²"
      ],
      [
        "è",
        "¶"
      ],
      [
        "a",
        "c"
      ],
      [
        "Ġ",
        "v"
      ],
      [
        "ig",
        "h"
      ],
      [
        "ç",
        "¾"
      ],
      [
        "l",
        "d"
      ],
      [
        "æľ",
        "º"
      ],
      [
        "æĸ",
        "°"
      ],
      [
        "Ġ",
        "5"
      ],
      [
        "åĲ",
        "į"
      ],
      [
        "a",
        "b"
      ],
      [
        "é",
        "Ĥ"
      ],
      [
        "e",
        "c"
      ],
      [
        "ä¸",
        "ī"
      ],
      [
        "p",
        "p"
      ],
      [
        "éľĢ",
        "è¦ģ"
      ],
      [
        "æŃ",
        "¤"
      ],
      [
        "è",
        "ĭ"
      ],
      [
        "å®",
        "¶"
      ],
      [
        "åĲ",
        "İ"
      ],
      [
        "çĶ",
        "µ"
      ],
      [
        "Ġ",
        "9"
      ],
      [
        "è¿Ļ",
        "ä¸ª"
      ],
      [
        "åĳ¨",
        "äº"
      ],
      [
        "Ġp",
        "ro"
      ],
      [
        "æĤ",
        "¨"
      ],
      [
        "il",
        "l"
      ],
      [
        "iv",
        "e"
      ],
      [
        "åĲ",
        "Ī"
      ],
      [
        "Ġa",
        "l"
      ],
      [
        "es",
        "s"
      ],
      [
        "t",
        "h"
      ],
      [
        "é",
        "Ķ"
      ],
      [
        "åĮ",
        "ĸ"
      ],
      [
        "en",
        "d"
      ],
      [
        "ç",
        "Ł"
      ],
      [
        "Ġ",
        "'"
      ],
      [
        "e",
        "m"
      ],
      [
        "Ġ",
        "it"
      ],
      [
        "ä¹",
        "Ł"
      ],
      [
        "ç®",
        "Ĺ"
      ],
      [
        "æ±",
        "Ĥ"
      ],
      [
        "e",
        "w"
      ],
      [
        "æĥ",
        "ħ"
      ],
      [
        "u",
        "e"
      ],
      [
        "å½",
        "ĵ"
      ],
      [
        "ç",
        "¨"
      ],
      [
        "æĹ",
        "¥"
      ],
      [
        "Ġ",
        "="
      ],
      [
        "ä»¥",
        "ä¸ĭ"
      ],
      [
        "ç",
        "Ŀ"
      ],
      [
        "Ġa",
        "t"
      ],
      [
        "è§",
        "£"
      ],
      [
        "ä¸",
        "»"
      ],
      [
        "o",
        "re"
      ],
      [
        "åħ",
        "¥"
      ],
      [
        "é",
        "¦"
      ],
      [
        "éĢ",
        "ļ"
      ],
      [
        "è",
        "±"
      ],
      [
        "Ġ",
        "4"
      ],
      [
        "é",
        "¡"
      ],
      [
        "å½",
        "±"
      ],
      [
        "Ġs",
        "h"
      ],
      [
        "âĢ",
        "Ķ"
      ],
      [
        "éĢ",
        "ī"
      ],
      [
        "Ġc",
        "on"
      ],
      [
        "o",
        "o"
      ],
      [
        "æ",
        "ģ"
      ],
      [
        "èĢ",
        "Į"
      ],
      [
        "Ġc",
        "om"
      ],
      [
        "Ġ",
        "H"
      ],
      [
        "æ¯",
        "Ķ"
      ],
      [
        "igh",
        "t"
      ],
      [
        "Ġ1",
        "9"
      ],
      [
        "å",
        "Ŀ"
      ],
      [
        "éĹ®",
        "é¢ĺ"
      ],
      [
        "å¾",
        "Ī"
      ],
      [
        "æĸĩ",
        "æľ¬"
      ],
      [
        "c",
        "c"
      ],
      [
        "å",
        "ĸ"
      ],
      [
        "åħ",
        "¬"
      ],
      [
        "æ¬",
        "¡"
      ],
      [
        "Ġ",
        "F"
      ],
      [
        "ç¾",
        "İ"
      ],
      [
        "Ġw",
        "h"
      ],
      [
        "éĩ",
        "Į"
      ],
      [
        "Ġ",
        "W"
      ],
      [
        "u",
        "m"
      ],
      [
        "ç",
        "©"
      ],
      [
        "è",
        "¢"
      ],
      [
        "ç»",
        "ĵ"
      ],
      [
        "æł",
        "¹"
      ],
      [
        "è",
        "Ĥ"
      ],
      [
        "e",
        "p"
      ],
      [
        "åŃ",
        "Ĺ"
      ],
      [
        "Ġ",
        "Ã"
      ],
      [
        "a",
        "k"
      ],
      [
        "ï¼",
        "ī"
      ],
      [
        "a",
        "v"
      ],
      [
        "æ°",
        "Ķ"
      ],
      [
        "-",
        "@"
      ],
      [
        "Ġ@",
        "-@"
      ],
      [
        "å¼",
        "ı"
      ],
      [
        "ç",
        "¡"
      ],
      [
        "è",
        "·"
      ],
      [
        "çĤ",
        "¹"
      ],
      [
        "è",
        "Ĳ"
      ],
      [
        "Ġ",
        "or"
      ],
      [
        "ä¿",
        "¡"
      ],
      [
        "ï¼",
        "Ī"
      ],
      [
        "é",
        "Ľ"
      ],
      [
        "æĦ",
        "ı"
      ],
      [
        "é",
        "ļ"
      ],
      [
        "é",
        "ª"
      ],
      [
        "çĿ",
        "Ģ"
      ],
      [
        "ç",
        "¤"
      ],
      [
        "ç",
        "½"
      ],
      [
        "åĽ",
        "½"
      ],
      [
        "è¿",
        "ĺ"
      ],
      [
        "é",
        "ħ"
      ],
      [
        "ä¸",
        "¤"
      ],
      [
        "å¿",
        "ĥ"
      ],
      [
        "Ġ",
        "he"
      ],
      [
        "éĤ",
        "£"
      ],
      [
        "é",
        "ķ"
      ],
      [
        "é",
        "ĥ"
      ],
      [
        "ç»",
        "ı"
      ],
      [
        "å",
        "»"
      ],
      [
        "ct",
        "ion"
      ],
      [
        "çİ",
        "ĩ"
      ],
      [
        "æ¡",
        "Ī"
      ],
      [
        "è¯",
        "Ħ"
      ],
      [
        "é",
        "ĥ½"
      ],
      [
        "Ġ",
        "un"
      ],
      [
        "æ",
        "Ł"
      ],
      [
        "Ġ",
        "D"
      ],
      [
        "æ¯",
        "ı"
      ],
      [
        "ç¨",
        "ĭ"
      ],
      [
        "åĽ",
        "ŀ"
      ],
      [
        "ç",
        "ķ"
      ],
      [
        "æ°",
        "´"
      ],
      [
        "è±",
        "¡"
      ],
      [
        "ĠP",
        "M"
      ],
      [
        "ä¾",
        "Ľ"
      ],
      [
        "Ġw",
        "e"
      ],
      [
        "é£",
        "İ"
      ],
      [
        "åĮ",
        "ħ"
      ],
      [
        "ä½¿",
        "çĶ¨"
      ],
      [
        "æŃ",
        "£"
      ],
      [
        "çĲ",
        "ĥ"
      ],
      [
        "æł¹",
        "æį®"
      ],
      [
        "åı¥",
        "åŃĲ"
      ],
      [
        "ou",
        "ld"
      ],
      [
        "i",
        "es"
      ],
      [
        "or",
        "t"
      ],
      [
        "è¿",
        "°"
      ],
      [
        "ĠÃ",
        "Ĺ"
      ],
      [
        "äº",
        "ĭ"
      ],
      [
        "Ġa",
        "re"
      ],
      [
        "åı",
        "ĸ"
      ],
      [
        "ç",
        "ĥ"
      ],
      [
        "ä¿",
        "Ŀ"
      ],
      [
        "u",
        "p"
      ],
      [
        "åĨ",
        "Ļ"
      ],
      [
        "çī",
        "¹"
      ],
      [
        "çŃ",
        "Ķ"
      ],
      [
        "å",
        "ķ"
      ],
      [
        "å®",
        "ŀ"
      ],
      [
        "åĪ",
        "Ĺ"
      ],
      [
        "æ",
        "·"
      ],
      [
        "Ġ",
        "R"
      ],
      [
        "æĥ",
        "³"
      ],
      [
        "è¢",
        "«"
      ],
      [
        "an",
        "t"
      ],
      [
        "å",
        "ŀ"
      ],
      [
        "åĮ",
        "º"
      ],
      [
        "çĽ",
        "®"
      ],
      [
        "ä»",
        "Ģ"
      ],
      [
        "æĹ",
        "ł"
      ],
      [
        "ä»",
        "İ"
      ],
      [
        "åĨ",
        "ħ"
      ],
      [
        "æĺ¯",
        "ä¸Ģ"
      ],
      [
        "Ġ",
        "y"
      ],
      [
        "ç",
        "´"
      ],
      [
        "æıĲ",
        "ä¾Ľ"
      ],
      [
        "éĥ",
        "¨"
      ],
      [
        "å»",
        "º"
      ],
      [
        "æł",
        "ĩ"
      ],
      [
        "åĵª",
        "ä¸ª"
      ],
      [
        "ç",
        "¼"
      ],
      [
        "ç¡",
        "®"
      ],
      [
        "Wh",
        "ich"
      ],
      [
        "Ġe",
        "x"
      ],
      [
        "Ġ",
        "us"
      ],
      [
        "è",
        "į"
      ],
      [
        "Ġs",
        "u"
      ],
      [
        "åİ",
        "»"
      ],
      [
        "åĽ",
        "Ľ"
      ],
      [
        "å",
        "¢"
      ],
      [
        "å¼",
        "Ģ"
      ],
      [
        "è¯",
        "´"
      ],
      [
        "éģ",
        "ĵ"
      ],
      [
        "éķ",
        "¿"
      ],
      [
        "è¿Ľ",
        "è¡Į"
      ],
      [
        "qu",
        "al"
      ],
      [
        "ç",
        "ĭ"
      ],
      [
        "åī",
        "į"
      ],
      [
        "åħ",
        "ĥ"
      ],
      [
        "éĢ",
        "Ĥ"
      ],
      [
        "ç³",
        "»"
      ],
      [
        "ä½",
        "į"
      ],
      [
        "è®",
        "©"
      ],
      [
        "ä½",
        "Ĩ"
      ],
      [
        "al",
        "l"
      ],
      [
        "æŃ",
        "¥"
      ],
      [
        "a",
        "p"
      ],
      [
        "an",
        "s"
      ],
      [
        "è´",
        "¨"
      ],
      [
        "æĿ",
        "¡"
      ],
      [
        "éĿ",
        "ŀ"
      ],
      [
        "ro",
        "m"
      ],
      [
        "æĬ",
        "Ģ"
      ],
      [
        "å¤",
        "ĸ"
      ],
      [
        "å¥½",
        "çļĦ"
      ],
      [
        "Ġ",
        "E"
      ],
      [
        "ç",
        "Ĭ"
      ],
      [
        "ç",
        "¿"
      ],
      [
        "Ī",
        "Ĵ"
      ],
      [
        "ä»Ģ",
        "ä¹Ī"
      ],
      [
        "ç",
        "Ī"
      ],
      [
        "åı",
        "ĺ"
      ],
      [
        "åĪ",
        "Ļ"
      ],
      [
        "Ġ",
        "G"
      ],
      [
        "å¤",
        "Ħ"
      ],
      [
        "èµ",
        "·"
      ],
      [
        "ä»",
        "£"
      ],
      [
        "ou",
        "r"
      ],
      [
        "Ġt",
        "r"
      ],
      [
        "æĮ",
        "ĩ"
      ],
      [
        "æł",
        "¼"
      ],
      [
        "Ġ",
        "L"
      ],
      [
        "é£",
        "Ł"
      ],
      [
        "å·",
        "²"
      ],
      [
        "è®",
        "®"
      ],
      [
        "Ġ",
        "N"
      ],
      [
        "Ġ1",
        "2"
      ],
      [
        "u",
        "d"
      ],
      [
        "åħ",
        "¨"
      ],
      [
        "j",
        "ect"
      ],
      [
        "åĪ",
        "¶"
      ],
      [
        "å°",
        "ĳ"
      ],
      [
        "è",
        "ģ"
      ],
      [
        "çĶŁ",
        "æĪĲ"
      ],
      [
        "å¹",
        "³"
      ],
      [
        "a",
        "il"
      ],
      [
        "Ġc",
        "h"
      ],
      [
        "Ġ",
        "le"
      ],
      [
        "Ġ",
        "âĢĶ"
      ],
      [
        "åŀ",
        "ĭ"
      ],
      [
        "æī",
        "ĭ"
      ],
      [
        "Ġ1",
        "8"
      ],
      [
        "æľ",
        "¯"
      ],
      [
        "æģ",
        "¯"
      ],
      [
        "us",
        "t"
      ],
      [
        "oun",
        "t"
      ],
      [
        "æĢ",
        "ģ"
      ],
      [
        "ä½",
        "ķ"
      ],
      [
        "v",
        "i"
      ],
      [
        "Ġf",
        "rom"
      ],
      [
        "å°ı",
        "æĺİ"
      ],
      [
        "é",
        "Ĵ"
      ],
      [
        "åı",
        "ª"
      ],
      [
        "h",
        "u"
      ],
      [
        "ä¸Ģ",
        "äºĽ"
      ],
      [
        "åı",
        "Ĺ"
      ],
      [
        "Ġ1",
        "0"
      ],
      [
        "å¸",
        "Ĥ"
      ],
      [
        "ar",
        "t"
      ],
      [
        "çľ",
        "ĭ"
      ],
      [
        "å",
        "§"
      ],
      [
        "ä»",
        "¶"
      ],
      [
        "é",
        "»"
      ],
      [
        "Ġ",
        "+"
      ],
      [
        "æ",
        "»"
      ],
      [
        "çĶ",
        "±"
      ],
      [
        "s",
        "e"
      ],
      [
        "æľ",
        "Ł"
      ],
      [
        "éĹ",
        "¨"
      ],
      [
        "ç",
        "ł"
      ],
      [
        "t",
        "e"
      ],
      [
        "Ġs",
        "c"
      ],
      [
        "o",
        "p"
      ],
      [
        "åĸ",
        "ľ"
      ],
      [
        "å¦Ĥ",
        "æŀľ"
      ],
      [
        "äº",
        "§"
      ],
      [
        "ç»",
        "Ħ"
      ],
      [
        "åĽł",
        "æŃ¤"
      ],
      [
        "æ¬",
        "¢"
      ],
      [
        "è",
        "ĥ"
      ],
      [
        "æĿ",
        "ĥ"
      ],
      [
        "åľ",
        "º"
      ],
      [
        "Ġd",
        "e"
      ],
      [
        "éª",
        "Į"
      ],
      [
        "Ġa",
        "pp"
      ],
      [
        "è¯",
        "Ŀ"
      ],
      [
        "è",
        "º"
      ],
      [
        "é",
        "Ł"
      ],
      [
        "å",
        "Ļ"
      ],
      [
        "Ġcom",
        "p"
      ],
      [
        "åħ",
        "±"
      ],
      [
        "ä¸",
        "ļ"
      ],
      [
        "åħ",
        "Ń"
      ],
      [
        "Ġ",
        "J"
      ],
      [
        "o",
        "d"
      ],
      [
        "Ġ",
        "â"
      ],
      [
        "éĿŀ",
        "å¸¸"
      ],
      [
        "at",
        "ed"
      ],
      [
        "åİ",
        "Ĩ"
      ],
      [
        "å¸",
        "®"
      ],
      [
        "ç«",
        "ł"
      ],
      [
        "ä¸Ń",
        "çļĦ"
      ],
      [
        "æĻ",
        "º"
      ],
      [
        "æ´",
        "»"
      ],
      [
        "o",
        "on"
      ],
      [
        "æĢ",
        "»"
      ],
      [
        "æĮ",
        "ī"
      ],
      [
        "f",
        "er"
      ],
      [
        "æľ",
        "ª"
      ],
      [
        "çĬ",
        "¶"
      ],
      [
        "æ",
        "¶"
      ],
      [
        "ç»Ļ",
        "å®ļ"
      ],
      [
        "å",
        "£"
      ],
      [
        "é",
        "¥"
      ],
      [
        "a",
        "g"
      ],
      [
        "1",
        "0"
      ],
      [
        "ç",
        "¯"
      ],
      [
        "èº",
        "«"
      ],
      [
        "b",
        "ject"
      ],
      [
        "Ġ",
        "O"
      ],
      [
        "Ġm",
        "e"
      ],
      [
        "åĻ",
        "¨"
      ],
      [
        "Ġ",
        ")"
      ],
      [
        "åĲ",
        "Ĺ"
      ],
      [
        "åį",
        "Ī"
      ],
      [
        "T",
        "he"
      ],
      [
        "ä¹",
        "ł"
      ],
      [
        "Ġc",
        "an"
      ],
      [
        "p",
        "er"
      ],
      [
        "w",
        "e"
      ],
      [
        "æĸĩ",
        "ç«ł"
      ],
      [
        "2",
        "0"
      ],
      [
        "è®",
        "¾"
      ],
      [
        "è",
        "¨"
      ],
      [
        "ç",
        "¥"
      ],
      [
        "å½",
        "¢"
      ],
      [
        "el",
        "l"
      ],
      [
        "Ġ1",
        "4"
      ],
      [
        "è®¡",
        "ç®Ĺ"
      ],
      [
        "å°",
        "±"
      ],
      [
        "Ġn",
        "e"
      ],
      [
        "Ġs",
        "e"
      ],
      [
        "åĬ",
        "¡"
      ],
      [
        "åĪ",
        "«"
      ],
      [
        "Ġp",
        "l"
      ],
      [
        "Ġt",
        "im"
      ],
      [
        "%",
        ","
      ],
      [
        "èĬ",
        "±"
      ],
      [
        "åı¯",
        "èĥ½"
      ],
      [
        "åĳ¨äº",
        "Ķ"
      ],
      [
        "åĳ¨",
        "åħŃ"
      ],
      [
        "æĺ",
        "Ł"
      ],
      [
        "éĺ",
        "³"
      ],
      [
        "åĳ¨",
        "ä¸Ģ"
      ],
      [
        "åĳ¨",
        "åĽĽ"
      ],
      [
        "è°",
        "ĥ"
      ],
      [
        "åĳ¨",
        "ä¸ī"
      ],
      [
        "ç",
        "ģ"
      ],
      [
        "vi",
        "ew"
      ],
      [
        "æķ",
        "Ī"
      ],
      [
        "ä¾",
        "ĭ"
      ],
      [
        "å¯¹",
        "è±¡"
      ],
      [
        "åı",
        "Ĭ"
      ],
      [
        "åĳ¨äº",
        "Į"
      ],
      [
        "Ġâ",
        "ĪĴ"
      ],
      [
        "çĶµ",
        "å½±"
      ],
      [
        "ãĢ",
        "ĭ"
      ],
      [
        "ãĢ",
        "Ĭ"
      ],
      [
        "å·¥",
        "åħ·"
      ],
      [
        "å±",
        "ķ"
      ],
      [
        "é",
        "¸"
      ],
      [
        "æĶ",
        "¾"
      ],
      [
        "oo",
        "k"
      ],
      [
        "åħ",
        "Ī"
      ],
      [
        "æı",
        "ı"
      ],
      [
        "æł",
        "·"
      ],
      [
        "Ġ1",
        "1"
      ],
      [
        "è",
        "ı"
      ],
      [
        "æĻº",
        "èĥ½"
      ],
      [
        "è",
        "İ"
      ],
      [
        "d",
        "er"
      ],
      [
        "è§",
        "Ħ"
      ],
      [
        "Ġc",
        "l"
      ],
      [
        "ç®",
        "Ģ"
      ],
      [
        "åĪ",
        "©"
      ],
      [
        "ç",
        "ĸ"
      ],
      [
        "am",
        "e"
      ],
      [
        "o",
        "c"
      ],
      [
        "æķ°",
        "æį®"
      ],
      [
        "åĩ",
        "Ĩ"
      ],
      [
        "åĪ",
        "Ľ"
      ],
      [
        "çº",
        "¢"
      ],
      [
        "æ¬",
        "¾"
      ],
      [
        "ä¹",
        "Ĳ"
      ],
      [
        "ç¿",
        "»"
      ],
      [
        "ä¿¡",
        "æģ¯"
      ],
      [
        "Ġ",
        "Ġ"
      ],
      [
        "æĭ",
        "¬"
      ],
      [
        "ar",
        "d"
      ],
      [
        "è¾",
        "ĵ"
      ],
      [
        "ä»",
        "·"
      ],
      [
        "åı",
        "£"
      ],
      [
        "in",
        "t"
      ],
      [
        "ç",
        "Į"
      ],
      [
        "è",
        "£"
      ],
      [
        "Ġwe",
        "ight"
      ],
      [
        "ç§",
        "ĳ"
      ],
      [
        "æľ",
        "Ī"
      ],
      [
        "o",
        "g"
      ],
      [
        "æµ",
        "·"
      ],
      [
        "Ġa",
        "r"
      ],
      [
        "'",
        "s"
      ],
      [
        "Ġ1",
        "5"
      ],
      [
        "æµ",
        "ģ"
      ],
      [
        "or",
        "m"
      ],
      [
        "å®",
        "¹"
      ],
      [
        "é¦",
        "ĸ"
      ],
      [
        "Ġh",
        "is"
      ],
      [
        "è¨",
        "Ģ"
      ],
      [
        "æ",
        "¼"
      ],
      [
        "ic",
        "al"
      ],
      [
        "Ġ",
        "j"
      ],
      [
        "èĭ",
        "±"
      ],
      [
        "an",
        "ce"
      ],
      [
        "ä»",
        "»"
      ],
      [
        "Ġb",
        "and"
      ],
      [
        "åĬ",
        "©"
      ],
      [
        "è",
        "Ļ"
      ],
      [
        "u",
        "re"
      ],
      [
        "è",
        "Ī"
      ],
      [
        "åı",
        "²"
      ],
      [
        "è¯",
        "ĳ"
      ],
      [
        "æĮ",
        "ģ"
      ],
      [
        "åħ",
        "ī"
      ],
      [
        "Ġ2",
        "0"
      ],
      [
        "f",
        "ter"
      ],
      [
        "a",
        "ge"
      ],
      [
        "è¯·",
        "æ±Ĥ"
      ],
      [
        "å®ĥ",
        "ä»¬"
      ],
      [
        "Ġs",
        "p"
      ],
      [
        "æİ",
        "¨"
      ],
      [
        "è´",
        "¦"
      ],
      [
        "å·",
        "±"
      ],
      [
        "è®",
        "º"
      ],
      [
        "n",
        "ing"
      ],
      [
        "æ",
        "¨"
      ],
      [
        "çŁ",
        "¥"
      ],
      [
        "Ġa",
        "b"
      ],
      [
        "èĲ",
        "½"
      ],
      [
        "éŁ",
        "³"
      ],
      [
        "ä»ĸ",
        "ä»¬"
      ],
      [
        "èĩª",
        "å·±"
      ],
      [
        "Ġsh",
        "ould"
      ],
      [
        "æĭ",
        "©"
      ],
      [
        "Ġn",
        "ot"
      ],
      [
        "ç¬",
        "¬"
      ],
      [
        "Ġ",
        "k"
      ],
      [
        "i",
        "p"
      ],
      [
        "ç¯",
        "ĩ"
      ],
      [
        "éĢī",
        "æĭ©"
      ],
      [
        "Ġa",
        "ction"
      ],
      [
        "èĬ",
        "Ĥ"
      ],
      [
        "é¡",
        "¹"
      ],
      [
        "åĬ¨",
        "ä½ľ"
      ],
      [
        "g",
        "h"
      ],
      [
        "éĢļ",
        "è¿ĩ"
      ],
      [
        "æıı",
        "è¿°"
      ],
      [
        "åĢ",
        "¼"
      ],
      [
        "è¿Ļ",
        "äºĽ"
      ],
      [
        "é",
        "ĵ"
      ],
      [
        "ç»",
        "Ł"
      ],
      [
        "æĸ",
        "Ļ"
      ],
      [
        "æ³",
        "¨"
      ],
      [
        "Ġ1",
        "3"
      ],
      [
        "Ġp",
        "o"
      ],
      [
        "ç¤",
        "º"
      ],
      [
        "åĸľ",
        "æ¬¢"
      ],
      [
        "åĲ",
        "Ħ"
      ],
      [
        "ç¿»",
        "è¯ĳ"
      ],
      [
        "ç",
        "²"
      ],
      [
        "åĨ",
        "³"
      ],
      [
        "ver",
        "y"
      ],
      [
        "ç¬",
        "¦"
      ],
      [
        "äº",
        "¤"
      ],
      [
        "i",
        "al"
      ],
      [
        "ou",
        "t"
      ],
      [
        "oun",
        "d"
      ],
      [
        "å®",
        "ī"
      ],
      [
        "Ġst",
        "at"
      ],
      [
        "Ġe",
        "v"
      ],
      [
        "Ġto",
        "ol"
      ],
      [
        "Ġre",
        "qu"
      ],
      [
        "Ġre",
        "s"
      ],
      [
        "Ġthe",
        "ir"
      ],
      [
        "Ġa",
        "d"
      ],
      [
        "in",
        "e"
      ],
      [
        "çº",
        "§"
      ],
      [
        "æ²",
        "¡"
      ],
      [
        "åİ",
        "Ł"
      ],
      [
        "æ¸",
        "¸"
      ],
      [
        "b",
        "er"
      ],
      [
        "Ġ",
        "-"
      ],
      [
        "è¿",
        "Ĳ"
      ],
      [
        "av",
        "e"
      ],
      [
        "åº",
        "ı"
      ],
      [
        "è¾",
        "ĥ"
      ],
      [
        "Ġt",
        "w"
      ],
      [
        "è¯",
        "ķ"
      ],
      [
        "è¾",
        "¾"
      ],
      [
        "ig",
        "n"
      ],
      [
        "æİ",
        "Ĵ"
      ],
      [
        "åķ",
        "Ĩ"
      ],
      [
        "æİ",
        "¥"
      ],
      [
        "æ¸",
        "ħ"
      ],
      [
        "æľ",
        "į"
      ],
      [
        "ĠI",
        "n"
      ],
      [
        "çĪ",
        "±"
      ],
      [
        "è",
        "Ħ"
      ],
      [
        "h",
        "ol"
      ],
      [
        "åĮħ",
        "æĭ¬"
      ],
      [
        "é",
        "©"
      ],
      [
        "er",
        "e"
      ],
      [
        "åı",
        "ĭ"
      ],
      [
        "ä¸¤",
        "ä¸ª"
      ],
      [
        "r",
        "a"
      ],
      [
        "çİ",
        "¯"
      ],
      [
        "ä¸",
        "ĸ"
      ],
      [
        "ac",
        "k"
      ],
      [
        "åĳ",
        "³"
      ],
      [
        "æĹ¶",
        "éĹ´"
      ],
      [
        "ic",
        "k"
      ],
      [
        "o",
        "v"
      ],
      [
        "il",
        "ity"
      ],
      [
        "åĩ",
        "ł"
      ],
      [
        "Ġin",
        "t"
      ],
      [
        "en",
        "ce"
      ],
      [
        "ic",
        "e"
      ],
      [
        "éĩ",
        "ĳ"
      ],
      [
        "i",
        "z"
      ],
      [
        "ä¸į",
        "åĲĮ"
      ],
      [
        "e",
        "e"
      ],
      [
        "æī",
        "¾"
      ],
      [
        "on",
        "g"
      ],
      [
        "è½",
        "¦"
      ],
      [
        "Ġ1",
        "6"
      ],
      [
        "åŃ¦",
        "ä¹ł"
      ],
      [
        "åºĶ",
        "è¯¥"
      ],
      [
        "æķ",
        "´"
      ],
      [
        "åı",
        "¸"
      ],
      [
        "Wh",
        "at"
      ],
      [
        "Ġas",
        "s"
      ],
      [
        "ä¹",
        "ī"
      ],
      [
        "æŃ",
        "Į"
      ],
      [
        "åİĨ",
        "åı²"
      ],
      [
        "Ġ1",
        "7"
      ],
      [
        "æ",
        "º"
      ],
      [
        "i",
        "k"
      ],
      [
        "Ġd",
        "is"
      ],
      [
        "Ġo",
        "ver"
      ],
      [
        "id",
        "e"
      ],
      [
        "ç",
        "¦"
      ],
      [
        "i",
        "ed"
      ],
      [
        "d",
        "u"
      ],
      [
        "ul",
        "t"
      ],
      [
        "ation",
        "s"
      ],
      [
        "ç»ĵ",
        "æŀľ"
      ],
      [
        "å¤",
        "ĩ"
      ],
      [
        "a",
        "re"
      ],
      [
        "as",
        "t"
      ],
      [
        "åĳ",
        "Ĭ"
      ],
      [
        "Ġ",
        "U"
      ],
      [
        "åĽł",
        "ä¸º"
      ],
      [
        "M",
        "on"
      ],
      [
        "Ġstat",
        "us"
      ],
      [
        "å¤",
        "ª"
      ],
      [
        "Ġw",
        "or"
      ],
      [
        "ç»Ļ",
        "åĩº"
      ],
      [
        "çĬ¶",
        "æĢģ"
      ],
      [
        "å¤Ħ",
        "çĲĨ"
      ],
      [
        "ĠA",
        "M"
      ],
      [
        "F",
        "ri"
      ],
      [
        "çĶ¨",
        "æĪ·"
      ],
      [
        "Ġal",
        "l"
      ],
      [
        "g",
        "et"
      ],
      [
        "ou",
        "gh"
      ],
      [
        "W",
        "ed"
      ],
      [
        "è§",
        "Ĥ"
      ],
      [
        "Ġw",
        "ere"
      ],
      [
        "T",
        "hu"
      ],
      [
        "æĻ",
        "¯"
      ],
      [
        "Ġ0",
        "8"
      ],
      [
        "S",
        "at"
      ],
      [
        "T",
        "ue"
      ],
      [
        "ç",
        "ħ"
      ],
      [
        "Ġtw",
        "o"
      ],
      [
        "ä¹",
        "¦"
      ],
      [
        "Ġo",
        "bject"
      ],
      [
        "Ġa",
        "fter"
      ],
      [
        "Ġth",
        "res"
      ],
      [
        "æ",
        "£"
      ],
      [
        "Ġthres",
        "hol"
      ],
      [
        "åį",
        "³"
      ],
      [
        "éĻ",
        "©"
      ],
      [
        "æ¨",
        "¡"
      ],
      [
        "ç©",
        "º"
      ],
      [
        "æ·",
        "±"
      ],
      [
        "Ġre",
        "c"
      ],
      [
        "Ġwh",
        "ich"
      ],
      [
        "ç³",
        "ĸ"
      ],
      [
        "æĬĢ",
        "æľ¯"
      ],
      [
        "he",
        "n"
      ],
      [
        "Ġin",
        "c"
      ],
      [
        "Ġre",
        "view"
      ],
      [
        "æĢ",
        "Ŀ"
      ],
      [
        "å¥",
        "¹"
      ],
      [
        "Ġr",
        "ate"
      ],
      [
        "çķ",
        "Į"
      ],
      [
        "æĶ",
        "¯"
      ],
      [
        "Ġ",
        "en"
      ],
      [
        "åĳ",
        "ĺ"
      ],
      [
        "å¦Ĥ",
        "ä½ķ"
      ],
      [
        "å¤",
        "Ł"
      ],
      [
        "èı",
        "ľ"
      ],
      [
        "t",
        "end"
      ],
      [
        "åĬ",
        "Ł"
      ],
      [
        "Ġ",
        "up"
      ],
      [
        "åŁ",
        "İ"
      ],
      [
        "æī",
        "§"
      ],
      [
        "éļ",
        "ı"
      ],
      [
        "é",
        "¤"
      ],
      [
        "æĬ",
        "¥"
      ],
      [
        "æ",
        "ļ"
      ],
      [
        "åħ",
        "ĭ"
      ],
      [
        "os",
        "it"
      ],
      [
        "è´¦",
        "æĪ·"
      ],
      [
        "æĿĥ",
        "éĩį"
      ],
      [
        "e",
        "ar"
      ],
      [
        "äºº",
        "å·¥"
      ],
      [
        "è¶",
        "Ĭ"
      ],
      [
        "i",
        "re"
      ],
      [
        "è",
        "Į"
      ],
      [
        "æĺ¯",
        "ä¸Ģä¸ª"
      ],
      [
        "el",
        "y"
      ],
      [
        "å®",
        "Į"
      ],
      [
        "ç¬",
        "Ķ"
      ],
      [
        "é¤",
        "Ĳ"
      ],
      [
        "Ġd",
        "ay"
      ],
      [
        "p",
        "t"
      ],
      [
        "åĵ",
        "į"
      ],
      [
        "Ġa",
        "g"
      ],
      [
        "æ²¡",
        "æľī"
      ],
      [
        "ab",
        "ility"
      ],
      [
        "è¿",
        "ĳ"
      ],
      [
        "å¸",
        "¦"
      ],
      [
        "çº",
        "¦"
      ],
      [
        "åģ",
        "ļ"
      ],
      [
        "a",
        "ce"
      ],
      [
        "Ġst",
        "ep"
      ],
      [
        "åħ¬",
        "åı¸"
      ],
      [
        "åĲ",
        "ĳ"
      ],
      [
        "p",
        "ort"
      ],
      [
        "åŁ",
        "º"
      ],
      [
        "Ġt",
        "e"
      ],
      [
        "è·",
        "¯"
      ],
      [
        "æ",
        "ĵ"
      ],
      [
        "om",
        "e"
      ],
      [
        "f",
        "f"
      ],
      [
        "an",
        "c"
      ],
      [
        "å¢",
        "ĥ"
      ],
      [
        "äººå·¥",
        "æĻºèĥ½"
      ],
      [
        "å¼",
        "º"
      ],
      [
        "ic",
        "t"
      ],
      [
        "éĻ",
        "¤"
      ],
      [
        "ä»",
        "½"
      ],
      [
        "æĶ",
        "¹"
      ],
      [
        "ç",
        "Ĺ"
      ],
      [
        "æ¸",
        "©"
      ],
      [
        "åĽŀ",
        "çŃĶ"
      ],
      [
        "é¢",
        "Ħ"
      ],
      [
        "è¯",
        "Ĺ"
      ],
      [
        "or",
        "d"
      ],
      [
        "æ¯ı",
        "ä¸ª"
      ],
      [
        "åģ",
        "¥"
      ],
      [
        "æī§",
        "è¡Į"
      ],
      [
        "Ġstep",
        "s"
      ],
      [
        "åĲ",
        "¦"
      ],
      [
        "ä¼",
        "ł"
      ],
      [
        "âĢ",
        "ĵ"
      ],
      [
        "éħ",
        "į"
      ],
      [
        "èĩª",
        "çĦ¶"
      ],
      [
        "çĬ¶æĢģ",
        "ä¸º"
      ],
      [
        "Ġm",
        "at"
      ],
      [
        "Ġsc",
        "ore"
      ],
      [
        "Ġh",
        "ad"
      ],
      [
        "æ",
        "ĳ"
      ],
      [
        "į",
        "ä½ľ"
      ],
      [
        "Ġ",
        "qual"
      ],
      [
        "æķ",
        "ħ"
      ],
      [
        "d",
        "e"
      ],
      [
        "cc",
        "ount"
      ],
      [
        "é¢",
        "Ĩ"
      ],
      [
        "è¯Ń",
        "è¨Ģ"
      ],
      [
        "çŃĶ",
        "æ¡Ī"
      ],
      [
        "æĻ",
        "ļ"
      ],
      [
        "Ġt",
        "ak"
      ],
      [
        "æŀ",
        "ģ"
      ],
      [
        "an",
        "ge"
      ],
      [
        "éĩį",
        "è¦ģ"
      ],
      [
        "åĲ",
        "«"
      ],
      [
        "å·",
        "®"
      ],
      [
        "æł",
        "¸"
      ],
      [
        "ä¹ĭ",
        "éĹ´"
      ],
      [
        "p",
        "l"
      ],
      [
        "Ġb",
        "et"
      ],
      [
        "åĿ",
        "ĩ"
      ],
      [
        "åŃ",
        "ĺ"
      ],
      [
        "t",
        "her"
      ],
      [
        "åĲĮ",
        "æĹ¶"
      ],
      [
        "or",
        "y"
      ],
      [
        "1",
        "9"
      ],
      [
        "Ġh",
        "ave"
      ],
      [
        "ä¹",
        "°"
      ],
      [
        "å¿",
        "«"
      ],
      [
        "éĶ",
        "®"
      ],
      [
        "æµ",
        "ĭ"
      ],
      [
        "Ġe",
        "qual"
      ],
      [
        "ä»",
        "Ĭ"
      ],
      [
        "o",
        "st"
      ],
      [
        "Ġst",
        "r"
      ],
      [
        "è",
        "ĳ"
      ],
      [
        "ç´",
        "ł"
      ],
      [
        "cc",
        "ess"
      ],
      [
        "åĪĨ",
        "ç±»"
      ],
      [
        "ir",
        "st"
      ],
      [
        "re",
        "ate"
      ],
      [
        "Ġre",
        "t"
      ],
      [
        "çĻ",
        "½"
      ],
      [
        "çİ°",
        "åľ¨"
      ],
      [
        "åĨ",
        "į"
      ],
      [
        "ï¼",
        "ģ"
      ],
      [
        "å±",
        "±"
      ],
      [
        "åħ³",
        "äºİ"
      ],
      [
        "çŁ",
        "Ń"
      ],
      [
        "ç§",
        "¯"
      ],
      [
        "éĤ£",
        "ä¹Ī"
      ],
      [
        "`",
        "`"
      ],
      [
        "Ġ",
        "K"
      ],
      [
        "å¥",
        "³"
      ],
      [
        "ç",
        "ı"
      ],
      [
        "å¸®",
        "åĬ©"
      ],
      [
        "Ġrequ",
        "est"
      ],
      [
        "çļĦ",
        "ä¸Ģ"
      ],
      [
        "Ġg",
        "r"
      ],
      [
        "ou",
        "s"
      ],
      [
        "Ġs",
        "l"
      ],
      [
        "oo",
        "d"
      ],
      [
        "è½",
        "¬"
      ],
      [
        "a",
        "ct"
      ],
      [
        "i",
        "a"
      ],
      [
        "ç±",
        "³"
      ],
      [
        "å¤",
        "į"
      ],
      [
        "èĢ",
        "ĥ"
      ],
      [
        "æĸ",
        "Ń"
      ],
      [
        "Ġon",
        "e"
      ],
      [
        "æľ",
        "ĭ"
      ],
      [
        "å¤",
        "±"
      ],
      [
        "ç½",
        "ĳ"
      ],
      [
        "è¯",
        "Ĩ"
      ],
      [
        "r",
        "it"
      ],
      [
        "a",
        "ch"
      ],
      [
        "æīĢ",
        "æľī"
      ],
      [
        "è",
        "¥"
      ],
      [
        "æĬ",
        "Ĭ"
      ],
      [
        "åħ¶",
        "ä»ĸ"
      ],
      [
        "Ġo",
        "per"
      ],
      [
        "åŁ",
        "Ł"
      ],
      [
        "v",
        "o"
      ],
      [
        "f",
        "orm"
      ],
      [
        "å¯",
        "¼"
      ],
      [
        "è½",
        "»"
      ],
      [
        "æľĭ",
        "åıĭ"
      ],
      [
        "å",
        "Ķ"
      ],
      [
        "è´",
        "¹"
      ],
      [
        "å§",
        "ĭ"
      ],
      [
        "Ġd",
        "o"
      ],
      [
        "å½±",
        "åĵį"
      ],
      [
        "æº",
        "Ĳ"
      ],
      [
        "Ġcon",
        "t"
      ],
      [
        "ä¸»",
        "é¢ĺ"
      ],
      [
        "å®",
        "¢"
      ],
      [
        "%",
        "ï¼Į"
      ],
      [
        "ç¼",
        "ĸ"
      ],
      [
        "Ġ0",
        "9"
      ],
      [
        "è¥",
        "¿"
      ],
      [
        "åºĶ",
        "çĶ¨"
      ],
      [
        "æīĢ",
        "ä»¥"
      ],
      [
        "åı",
        "·"
      ],
      [
        "åįķ",
        "è¯į"
      ],
      [
        "ç»",
        "Ĩ"
      ],
      [
        "è®",
        "°"
      ],
      [
        "èĥ½",
        "å¤Ł"
      ],
      [
        "ä»",
        "ĺ"
      ],
      [
        "ä¾ĭ",
        "å¦Ĥ"
      ],
      [
        "ä¸",
        "Ķ"
      ],
      [
        "ä¸ĸ",
        "çķĮ"
      ],
      [
        "èµ",
        "Ħ"
      ],
      [
        "æī",
        "ĵ"
      ],
      [
        "å¼",
        "ķ"
      ],
      [
        "Ġthreshol",
        "ds"
      ],
      [
        "çī",
        "ĩ"
      ],
      [
        "s",
        "o"
      ],
      [
        "æ",
        "¦Ĥ"
      ],
      [
        "éĢ",
        "ł"
      ],
      [
        "Ġf",
        "irst"
      ],
      [
        "æĹ",
        "ħ"
      ],
      [
        "r",
        "y"
      ],
      [
        "åħ³",
        "éĶ®"
      ],
      [
        "åĩ",
        "ı"
      ],
      [
        "å·¥",
        "ä½ľ"
      ],
      [
        "tend",
        "ee"
      ],
      [
        "as",
        "s"
      ],
      [
        "å¤ļ",
        "å°ĳ"
      ],
      [
        "we",
        "en"
      ],
      [
        "å»º",
        "è®®"
      ],
      [
        "å®",
        "¡"
      ],
      [
        "æ»",
        "¡"
      ],
      [
        "ar",
        "y"
      ],
      [
        "Ġit",
        "s"
      ],
      [
        "åĢ",
        "Ļ"
      ],
      [
        "æ",
        "Ĳ"
      ],
      [
        "è®",
        "¤"
      ],
      [
        "çº",
        "¿"
      ],
      [
        "Ġ",
        "im"
      ],
      [
        "çļĦæ",
        "ĥ"
      ],
      [
        "åĬ¨",
        "çī©"
      ],
      [
        "f",
        "ul"
      ],
      [
        "ä¼",
        "ĺ"
      ],
      [
        "i",
        "le"
      ],
      [
        "¹",
        "æŀľ"
      ],
      [
        "èģ",
        "Ķ"
      ],
      [
        "u",
        "al"
      ],
      [
        "åĪ°",
        "äºĨ"
      ],
      [
        "Ġo",
        "ut"
      ],
      [
        "Ġbet",
        "ween"
      ],
      [
        "èĭ",
        "¹æŀľ"
      ],
      [
        "ion",
        "s"
      ],
      [
        "å¤",
        "´"
      ],
      [
        "as",
        "e"
      ],
      [
        "åĨ",
        "µ"
      ],
      [
        "re",
        "e"
      ],
      [
        "Ġtim",
        "e"
      ],
      [
        "ĠS",
        "t"
      ],
      [
        "Â",
        "·"
      ],
      [
        "Ġev",
        "en"
      ],
      [
        "è®",
        "¸"
      ],
      [
        "æŀ",
        "Ħ"
      ],
      [
        "èİ",
        "·"
      ],
      [
        "éĺ",
        "Ł"
      ],
      [
        "ç¤",
        "¾"
      ],
      [
        "v",
        "el"
      ],
      [
        "æĸ¹",
        "å¼ı"
      ],
      [
        "çĶ",
        "·"
      ],
      [
        "æĸ¹",
        "æ³ķ"
      ],
      [
        "ä¸Ģ",
        "ä¸ĭ"
      ],
      [
        "Ġb",
        "ut"
      ],
      [
        "åıĳ",
        "å±ķ"
      ],
      [
        "æĸ",
        "¯"
      ],
      [
        "è§",
        "Ĵ"
      ],
      [
        "è´¨",
        "éĩı"
      ],
      [
        "è",
        "Ľ"
      ],
      [
        "åĲ",
        "ĥ"
      ],
      [
        "e",
        "y"
      ],
      [
        "é¦",
        "Ļ"
      ],
      [
        "äº",
        "Į"
      ],
      [
        "u",
        "b"
      ],
      [
        "he",
        "d"
      ],
      [
        "æŁ",
        "¥"
      ],
      [
        "Ġl",
        "ik"
      ],
      [
        "è§",
        "Ĩ"
      ],
      [
        "s",
        "p"
      ],
      [
        "é¢",
        "Ŀ"
      ],
      [
        "ro",
        "v"
      ],
      [
        "è¯",
        "»"
      ],
      [
        "Ġ",
        "|"
      ],
      [
        "åħ¶",
        "ä¸Ń"
      ],
      [
        "å¢",
        "ŀ"
      ],
      [
        "1",
        "2"
      ],
      [
        "æĽ´",
        "åĬł"
      ],
      [
        "çĭ",
        "Ĺ"
      ],
      [
        "çĽ",
        "´"
      ],
      [
        "et",
        "ing"
      ],
      [
        "ä¼",
        "¼"
      ],
      [
        "ç¥",
        "ŀ"
      ],
      [
        "å",
        "²"
      ],
      [
        "äºº",
        "ä»¬"
      ],
      [
        "ç»",
        "Ń"
      ],
      [
        "åı",
        "į"
      ],
      [
        "w",
        "n"
      ],
      [
        "æķħ",
        "äºĭ"
      ],
      [
        "Ġp",
        "re"
      ],
      [
        "ç½",
        "®"
      ],
      [
        "æķ°",
        "åŃĹ"
      ],
      [
        "äºº",
        "ç±»"
      ],
      [
        "åº",
        "·"
      ],
      [
        "i",
        "e"
      ],
      [
        "çĶŁ",
        "æ´»"
      ],
      [
        "çĮ",
        "«"
      ],
      [
        "çĥ",
        "Ń"
      ],
      [
        "æĹ¶",
        "æ®µ"
      ],
      [
        "Ġal",
        "so"
      ],
      [
        "ç»",
        "Ī"
      ],
      [
        "åŁİ",
        "å¸Ĥ"
      ],
      [
        "çľ",
        "Ł"
      ],
      [
        "Ġm",
        "or"
      ],
      [
        "éĽ",
        "Ĩ"
      ],
      [
        "ç©",
        "¶"
      ],
      [
        "æľ",
        "Ľ"
      ],
      [
        "éĩ",
        "ĩ"
      ],
      [
        "åĮ",
        "»"
      ],
      [
        "ç»Ļ",
        "æĪĳ"
      ],
      [
        "ri",
        "es"
      ],
      [
        "æ",
        "¤"
      ],
      [
        "Ġoper",
        "ation"
      ],
      [
        "èį",
        "Ĳ"
      ],
      [
        "éĶ",
        "Ļ"
      ],
      [
        "å¸",
        "ĥ"
      ],
      [
        "èĩ",
        "³"
      ],
      [
        "è§",
        "ī"
      ],
      [
        "æ",
        "¢"
      ],
      [
        "å¹",
        "¿"
      ],
      [
        "è´",
        "Ń"
      ],
      [
        "res",
        "s"
      ],
      [
        "ç³»",
        "ç»Ł"
      ],
      [
        "ç«",
        "ĭ"
      ],
      [
        "ow",
        "n"
      ],
      [
        "Ġreview",
        "er"
      ],
      [
        "en",
        "s"
      ],
      [
        "è¯",
        "ī"
      ],
      [
        "is",
        "h"
      ],
      [
        "Ġm",
        "ore"
      ],
      [
        "å",
        "¦"
      ],
      [
        "è¶",
        "³"
      ],
      [
        "Ġr",
        "un"
      ],
      [
        "çļĦæĥ",
        "ħ"
      ],
      [
        "Ġin",
        "ter"
      ],
      [
        "äºĨ",
        "ä¸Ģ"
      ],
      [
        "ä»¥",
        "åıĬ"
      ],
      [
        "çħ",
        "§"
      ],
      [
        "ç§",
        "°"
      ],
      [
        "1",
        "1"
      ],
      [
        "an",
        "g"
      ],
      [
        "Ġmor",
        "ning"
      ],
      [
        "é£İ",
        "éĻ©"
      ],
      [
        "è¾ĵ",
        "åħ¥"
      ],
      [
        "Ġe",
        "very"
      ],
      [
        "Ġh",
        "as"
      ],
      [
        "åĳ",
        "½"
      ],
      [
        "æĿ",
        "Ĳ"
      ],
      [
        "00",
        "0"
      ],
      [
        "if",
        "ied"
      ],
      [
        "æĪ",
        "ĺ"
      ],
      [
        "åŃ",
        "£"
      ],
      [
        "è®¾",
        "è®¡"
      ],
      [
        "è§",
        "ģ"
      ],
      [
        "ol",
        "l"
      ],
      [
        "è¯",
        "¯"
      ],
      [
        "åģ¥",
        "åº·"
      ],
      [
        "Ġsl",
        "ot"
      ],
      [
        "ä¹ĭ",
        "ä¸Ģ"
      ],
      [
        "Ġa",
        "v"
      ],
      [
        "c",
        "k"
      ],
      [
        "å¾Ĺ",
        "åĪ°"
      ],
      [
        "æİ¨",
        "èįĲ"
      ],
      [
        "ab",
        "le"
      ],
      [
        "ä¸Ģ",
        "ç¯ĩ"
      ],
      [
        "éĢ",
        "Ł"
      ],
      [
        "çİ¯",
        "å¢ĥ"
      ],
      [
        "ç»Ļå®ļ",
        "çļĦ"
      ],
      [
        "å",
        "ĥ"
      ],
      [
        "èĤ",
        "ī"
      ],
      [
        "è°",
        "¢"
      ],
      [
        "ot",
        "h"
      ],
      [
        "çł",
        "ģ"
      ],
      [
        "ç¿»è¯ĳ",
        "æĪĲ"
      ],
      [
        "çĦ¶",
        "åĲİ"
      ],
      [
        "æŀ",
        "Ĳ"
      ],
      [
        "æĵ",
        "įä½ľ"
      ],
      [
        "Ķ",
        "ç©¶"
      ],
      [
        "ar",
        "k"
      ],
      [
        "ĠC",
        "h"
      ],
      [
        "æ¡",
        "£"
      ],
      [
        "åĽ",
        "¾"
      ],
      [
        "Ġcl",
        "a"
      ],
      [
        "ĠI",
        "t"
      ],
      [
        "èĩ",
        "´"
      ],
      [
        "Ġr",
        "at"
      ],
      [
        "Ġeven",
        "ing"
      ],
      [
        "Ġ",
        "å·²"
      ],
      [
        "ä½",
        "İ"
      ],
      [
        "ç®",
        "¡"
      ],
      [
        "n",
        "oon"
      ],
      [
        "åı",
        "¤"
      ],
      [
        "åĪ",
        "Ĵ"
      ],
      [
        "æ¼",
        "Ķ"
      ],
      [
        "æĬ",
        "¤"
      ],
      [
        "Ġafter",
        "noon"
      ],
      [
        "æĿ",
        "¾"
      ],
      [
        "æĺ",
        "ĵ"
      ],
      [
        "ä¸Ń",
        "åĽ½"
      ],
      [
        "ad",
        "e"
      ],
      [
        "R",
        "e"
      ],
      [
        "Ġint",
        "o"
      ],
      [
        "i",
        "an"
      ],
      [
        "b",
        "h"
      ],
      [
        "æĪĸ",
        "èĢħ"
      ],
      [
        "Ġav",
        "ail"
      ],
      [
        "åī",
        "©"
      ],
      [
        "ä¿",
        "®"
      ],
      [
        "m",
        "er"
      ],
      [
        "æĶ",
        "¶"
      ],
      [
        "is",
        "k"
      ],
      [
        "Ġmat",
        "ch"
      ],
      [
        "Ġweight",
        "s"
      ],
      [
        "Ġn",
        "oon"
      ],
      [
        "è£",
        "ħ"
      ],
      [
        "bh",
        "ook"
      ],
      [
        "å¤©",
        "æ°Ķ"
      ],
      [
        "ä¸",
        "½"
      ],
      [
        "å±",
        "ŀ"
      ],
      [
        "é¢Ĩ",
        "åŁŁ"
      ],
      [
        "Ġ",
        "V"
      ],
      [
        "æĺ¯ä¸Ģ",
        "ç§į"
      ],
      [
        "Ġon",
        "ly"
      ],
      [
        "Ġf",
        "l"
      ],
      [
        "è",
        "ħ"
      ],
      [
        "é»",
        "ĳ"
      ],
      [
        "ĠM",
        "on"
      ],
      [
        "Ġinc",
        "l"
      ],
      [
        "éĩ",
        "Ĭ"
      ],
      [
        "ä¼ļ",
        "è®®"
      ],
      [
        "è¾",
        "¹"
      ],
      [
        "åĪĨ",
        "æŀĲ"
      ],
      [
        "ä¸»",
        "è¦ģ"
      ],
      [
        "åĨħ",
        "å®¹"
      ],
      [
        "åı¥",
        "è¯Ŀ"
      ],
      [
        "Ġv",
        "i"
      ],
      [
        "èµ",
        "°"
      ],
      [
        "çļĦ",
        "äºº"
      ],
      [
        "äº§",
        "åĵģ"
      ],
      [
        "èĽ",
        "ĭ"
      ],
      [
        "ç³ĸ",
        "æŀľ"
      ],
      [
        "æıĲ",
        "é«ĺ"
      ],
      [
        "åĪ",
        "¤"
      ],
      [
        "çĭ",
        "¬"
      ],
      [
        "Ġh",
        "ist"
      ],
      [
        "Ġus",
        "er"
      ],
      [
        "Ġqual",
        "ity"
      ],
      [
        "è®",
        "¢"
      ],
      [
        "ï¼ļ",
        "âĢľ"
      ],
      [
        "åħ·",
        "ä½ĵ"
      ],
      [
        "å",
        "ĭ"
      ],
      [
        "å¤",
        "ı"
      ],
      [
        "æ",
        "ħ"
      ],
      [
        "é",
        "²"
      ],
      [
        "æ",
        "§"
      ],
      [
        "éŁ³",
        "ä¹Ĳ"
      ],
      [
        "åı",
        "Ĥ"
      ],
      [
        "ä½Ĩ",
        "æĺ¯"
      ],
      [
        "çŃī",
        "çº§"
      ],
      [
        "ä¾",
        "¿"
      ],
      [
        "Ġy",
        "ou"
      ],
      [
        "ĠT",
        "h"
      ],
      [
        "åĥ",
        "ı"
      ],
      [
        "æľº",
        "åĻ¨"
[...]
